{
  "version": "1.0",
  "truncation": null,
  "padding": null,
  "added_tokens": [],
  "normalizer": null,
  "pre_tokenizer": {
    "type": "ByteLevel",
    "add_prefix_space": false,
    "trim_offsets": true,
    "use_regex": true
  },
  "post_processor": null,
  "decoder": {
    "type": "ByteLevel",
    "add_prefix_space": true,
    "trim_offsets": true,
    "use_regex": true
  },
  "model": {
    "type": "BPE",
    "dropout": null,
    "unk_token": null,
    "continuing_subword_prefix": null,
    "end_of_word_suffix": null,
    "fuse_unk": false,
    "byte_fallback": false,
    "ignore_merges": false,
    "vocab": {
      "!": 0,
      "\"": 1,
      "$": 2,
      "&": 3,
      "'": 4,
      "(": 5,
      ")": 6,
      "*": 7,
      "+": 8,
      ",": 9,
      "-": 10,
      ".": 11,
      "/": 12,
      "0": 13,
      "1": 14,
      "2": 15,
      "3": 16,
      "4": 17,
      "5": 18,
      "6": 19,
      "7": 20,
      "8": 21,
      "9": 22,
      ":": 23,
      ";": 24,
      "=": 25,
      "?": 26,
      "A": 27,
      "B": 28,
      "C": 29,
      "D": 30,
      "E": 31,
      "F": 32,
      "G": 33,
      "H": 34,
      "I": 35,
      "J": 36,
      "K": 37,
      "L": 38,
      "M": 39,
      "N": 40,
      "O": 41,
      "P": 42,
      "Q": 43,
      "R": 44,
      "S": 45,
      "T": 46,
      "U": 47,
      "V": 48,
      "W": 49,
      "X": 50,
      "Y": 51,
      "Z": 52,
      "_": 53,
      "a": 54,
      "b": 55,
      "c": 56,
      "d": 57,
      "e": 58,
      "f": 59,
      "g": 60,
      "h": 61,
      "i": 62,
      "j": 63,
      "k": 64,
      "l": 65,
      "m": 66,
      "n": 67,
      "o": 68,
      "p": 69,
      "q": 70,
      "r": 71,
      "s": 72,
      "t": 73,
      "u": 74,
      "v": 75,
      "w": 76,
      "x": 77,
      "y": 78,
      "z": 79,
      "¡": 80,
      "¢": 81,
      "£": 82,
      "¤": 83,
      "§": 84,
      "¨": 85,
      "©": 86,
      "ª": 87,
      "«": 88,
      "°": 89,
      "±": 90,
      "³": 91,
      "´": 92,
      "µ": 93,
      "º": 94,
      "¼": 95,
      "Â": 96,
      "Ã": 97,
      "â": 98,
      "Ċ": 99,
      "Ġ": 100,
      "Ģ": 101,
      "ģ": 102,
      "Ĥ": 103,
      "ĥ": 104,
      "ĩ": 105,
      "Ī": 106,
      "ī": 107,
      "Ĭ": 108,
      "į": 109,
      "ĵ": 110,
      "Ķ": 111,
      "ķ": 112,
      "Ļ": 113,
      "ļ": 114,
      "Ľ": 115,
      "ľ": 116,
      "Ŀ": 117,
      "ł": 118,
      "Ń": 119,
      "Ġd": 120,
      "Ġa": 121,
      "Ġe": 122,
      "ra": 123,
      "Ġp": 124,
      "Ġc": 125,
      "os": 126,
      "qu": 127,
      "Ġm": 128,
      "se": 129,
      "Ġde": 130,
      "as": 131,
      "nt": 132,
      "Ã£": 133,
      "que": 134,
      "Ġo": 135,
      "re": 136,
      "Ã£o": 137,
      "Ġn": 138,
      "ia": 139,
      "Ġque": 140,
      "is": 141,
      "do": 142,
      "Ġco": 143,
      "ar": 144,
      "Ġt": 145,
      "er": 146,
      "in": 147,
      "es": 148,
      "Ġf": 149,
      "or": 150,
      "um": 151,
      "lh": 152,
      "da": 153,
      "Ġse": 154,
      "Ã§": 155,
      "Ġv": 156,
      "me": 157,
      "Ġs": 158,
      "ou": 159,
      "Ã©": 160,
      "ta": 161,
      "de": 162,
      "Ã¡": 163,
      "la": 164,
      "va": 165,
      "Ġum": 166,
      "le": 167,
      "ro": 168,
      "Ġes": 169,
      "nte": 170,
      "ĠnÃ£o": 171,
      "to": 172,
      "Ġpa": 173,
      "âĢ": 174,
      "Ġcom": 175,
      "âĢĶ": 176,
      "Ġdo": 177,
      "im": 178,
      "en": 179,
      "an": 180,
      "Ġda": 181,
      "em": 182,
      "ri": 183,
      "ha": 184,
      "..": 185,
      "Ġre": 186,
      "al": 187,
      "ÃŃ": 188,
      "co": 189,
      "lhe": 190,
      "te": 191,
      "Ġou": 192,
      "ca": 193,
      "Ġb": 194,
      "ei": 195,
      "lo": 196,
      "gu": 197,
      "ir": 198,
      "Ã§Ã£o": 199,
      "ĠE": 200,
      "ci": 201,
      "Ġme": 202,
      "ĠÃ": 203,
      "Ġas": 204,
      "ĠA": 205,
      "li": 206,
      "Ġos": 207,
      "go": 208,
      "Ã³": 209,
      "ti": 210,
      "ve": 211,
      "Ġno": 212,
      "sa": 213,
      "ĠÃ©": 214,
      "Ġna": 215,
      "Ãª": 216,
      "Ġera": 217,
      "Ġem": 218,
      "ho": 219,
      "po": 220,
      "Ġpara": 221,
      "Ġpor": 222,
      "ĠN": 223,
      "am": 224,
      "Ġuma": 225,
      "Ã§a": 226,
      "so": 227,
      "Ġal": 228,
      "ce": 229,
      "Ġcon": 230,
      "Ġma": 231,
      "Ġg": 232,
      "inha": 233,
      "ĠC": 234,
      "Ġdi": 235,
      "tu": 236,
      "nto": 237,
      "res": 238,
      "Ġmas": 239,
      "ĠÃł": 240,
      "us": 241,
      "dade": 242,
      "mente": 243,
      "di": 244,
      "pe": 245,
      "Ġca": 246,
      "ma": 247,
      "cia": 248,
      "pa": 249,
      "ria": 250,
      "mo": 251,
      "ui": 252,
      "Ġao": 253,
      "ĠP": 254,
      "ĠD": 255,
      "Ġfi": 256,
      "tra": 257,
      "ando": 258,
      "Ġqu": 259,
      "Ġdis": 260,
      "Ġsa": 261,
      "Ġpo": 262,
      "Ġdes": 263,
      "ĠS": 264,
      "Ġlhe": 265,
      "ga": 266,
      "Ġj": 267,
      "Ġfo": 268,
      "Ġin": 269,
      "Ġvi": 270,
      "Ġi": 271,
      "Ġmais": 272,
      "Ġele": 273,
      "ran": 274,
      "Ġl": 275,
      "Ġpe": 276,
      "vi": 277,
      "un": 278,
      "ĠO": 279,
      "dos": 280,
      "Ġcas": 281,
      "Ġmo": 282,
      "ras": 283,
      "nta": 284,
      "ĠNÃ£o": 285,
      "ĠM": 286,
      "ram": 287,
      "cu": 288,
      "Ġto": 289,
      "Ġfa": 290,
      "...": 291,
      "Ġve": 292,
      "Ġcomo": 293,
      "Ã©m": 294,
      "Ġle": 295,
      "Ġam": 296,
      "Ġeu": 297,
      "na": 298,
      "Ġac": 299,
      "Ġent": 300,
      "dia": 301,
      "Ġsu": 302,
      "Ġper": 303,
      "io": 304,
      "Ġex": 305,
      "Ġso": 306,
      "Ġdisse": 307,
      "Ġsem": 308,
      "ĠEs": 309,
      "Ġela": 310,
      "Ġh": 311,
      "ĠT": 312,
      "tava": 313,
      "Ġolh": 314,
      "ver": 315,
      "tÃ¡": 316,
      "Qu": 317,
      "be": 318,
      "ĠV": 319,
      "tas": 320,
      "ira": 321,
      "Ãªn": 322,
      "das": 323,
      "Ġfoi": 324,
      "Ġmes": 325,
      "Ġtem": 326,
      "gum": 327,
      "Ġho": 328,
      "tro": 329,
      "lha": 330,
      "ix": 331,
      "Ġen": 332,
      "ros": 333,
      "Ġvo": 334,
      "vo": 335,
      "Ãµ": 336,
      "Ġver": 337,
      "he": 338,
      "Ġmui": 339,
      "Ġres": 340,
      "tos": 341,
      "Ġser": 342,
      "Ġcasa": 343,
      "bi": 344,
      "no": 345,
      "Ġdos": 346,
      "ndo": 347,
      "Ãµes": 348,
      "ĠR": 349,
      "ĠJ": 350,
      "Ġnem": 351,
      "Ġpro": 352,
      "ns": 353,
      "ĠQu": 354,
      "Ãº": 355,
      "tar": 356,
      "des": 357,
      "ba": 358,
      "cio": 359,
      "Ġdiz": 360,
      "Ġalgum": 361,
      "ĠâĢĶ": 362,
      "Ġcois": 363,
      "rio": 364,
      "ĠF": 365,
      "Ġpre": 366,
      "ntes": 367,
      "Ġoutra": 368,
      "pois": 369,
      "Ġap": 370,
      "tou": 371,
      "Ã§o": 372,
      "ge": 373,
      "ina": 374,
      "Ġbo": 375,
      "Ġvez": 376,
      "via": 377,
      "udo": 378,
      "ima": 379,
      "Ġlo": 380,
      "mento": 381,
      "les": 382,
      "Ġat": 383,
      "Ġcont": 384,
      "Ġan": 385,
      "Ġpas": 386,
      "inda": 387,
      "ris": 388,
      "lho": 389,
      "mb": 390,
      "nde": 391,
      "qui": 392,
      "Ġsi": 393,
      "Ġolhos": 394,
      "ĠsÃ³": 395,
      "pi": 396,
      "nti": 397,
      "Ġter": 398,
      "Ġpr": 399,
      "amb": 400,
      "lia": 401,
      "ĠL": 402,
      "Ġpare": 403,
      "cas": 404,
      "ĠmÃ£": 405,
      "Ġdas": 406,
      "rime": 407,
      "Ġir": 408,
      "Ġnos": 409,
      "idade": 410,
      "Ġfe": 411,
      "Ġfaz": 412,
      "cer": 413,
      "Ġtinha": 414,
      "sim": 415,
      "Ġdepois": 416,
      "pre": 417,
      "ambÃ©m": 418,
      "Ġpou": 419,
      "rou": 420,
      "Ã´": 421,
      "pos": 422,
      "Ġmuito": 423,
      "....": 424,
      "los": 425,
      "ru": 426,
      "Ġcar": 427,
      "las": 428,
      "Ġdia": 429,
      "raÃ§Ã£o": 430,
      "Ġsen": 431,
      "mos": 432,
      "Ġainda": 433,
      "endo": 434,
      "fi": 435,
      "Ġar": 436,
      "Ġnada": 437,
      "esse": 438,
      "Ġtempo": 439,
      "igo": 440,
      "Ġdu": 441,
      "Ġoutro": 442,
      "Ġmen": 443,
      "Ãªncia": 444,
      "Ġcoisa": 445,
      "Ġab": 446,
      "ĠH": 447,
      "Ġis": 448,
      "lav": 449,
      "rei": 450,
      "Ġminha": 451,
      "Ġtra": 452,
      "Ġtudo": 453,
      "Ã§Ãµes": 454,
      "su": 455,
      "der": 456,
      "vel": 457,
      "za": 458,
      "ĠlÃ¡": 459,
      "ele": 460,
      "ter": 461,
      "ĠI": 462,
      "ĠB": 463,
      "rar": 464,
      "ai": 465,
      "imp": 466,
      "aria": 467,
      "con": 468,
      "Ġra": 469,
      "ĠCo": 470,
      "Ġpen": 471,
      "Ġte": 472,
      "ntos": 473,
      "ĠhÃ¡": 474,
      "fe": 475,
      "inu": 476,
      "Ġprime": 477,
      "ĠtambÃ©m": 478,
      "dÃ©": 479,
      "gora": 480,
      "Ġquando": 481,
      "Ġesta": 482,
      "Ġcor": 483,
      "tura": 484,
      "ĠjÃ¡": 485,
      "ceu": 486,
      "bo": 487,
      "ĠPa": 488,
      "Ġia": 489,
      "Ġmesmo": 490,
      "car": 491,
      "ch": 492,
      "gar": 493,
      "ĠtÃ£o": 494,
      "com": 495,
      "Ġestava": 496,
      "vam": 497,
      "Ġmor": 498,
      "Ġpar": 499,
      "esso": 500,
      "cre": 501,
      "ntou": 502,
      "Ġfal": 503,
      "Ġmeu": 504,
      "Ġpalav": 505,
      "Ġpodia": 506,
      "Ġha": 507,
      "Ġdeix": 508,
      "eio": 509,
      "nter": 510,
      "CA": 511,
      "Ãį": 512,
      "Ġmu": 513,
      "Ġhome": 514,
      "LO": 515,
      "iu": 516,
      "TU": 517,
      "bre": 518,
      "iro": 519,
      "ĠG": 520,
      "Ġfor": 521,
      "ÃŃs": 522,
      "ja": 523,
      "Ġli": 524,
      "uma": 525,
      "Ġta": 526,
      "CAP": 527,
      "TULO": 528,
      "osse": 529,
      "inh": 530,
      "Ġdois": 531,
      "anh": 532,
      "ÃįTULO": 533,
      "Ġentre": 534,
      "CAPÃįTULO": 535,
      "Ġob": 536,
      "Ġpouco": 537,
      "ul": 538,
      "asse": 539,
      "Ġseu": 540,
      "ĠMas": 541,
      "Ġexp": 542,
      "ias": 543,
      "ior": 544,
      "Ġqua": 545,
      "ĠatÃ©": 546,
      "Ġespe": 547,
      "ĠDe": 548,
      "Ġne": 549,
      "eito": 550,
      "Ġalgu": 551,
      "Ġdizer": 552,
      "ita": 553,
      "nÃ§a": 554,
      "Ġla": 555,
      "indo": 556,
      "ĠmÃ£e": 557,
      "Ã³p": 558,
      "ĠRu": 559,
      "Ġpos": 560,
      "du": 561,
      "Ġporque": 562,
      "Ġnoi": 563,
      "inho": 564,
      "ente": 565,
      "rÃ¡": 566,
      "orge": 567,
      "ĠmoÃ§a": 568,
      "biÃ£o": 569,
      "per": 570,
      "ess": 571,
      "fia": 572,
      "vez": 573,
      "Ġmenos": 574,
      "cou": 575,
      "lu": 576,
      "Ġche": 577,
      "Ġalguma": 578,
      "Ġsab": 579,
      "Ġmar": 580,
      "Ġtal": 581,
      "Ġins": 582,
      "Ġcer": 583,
      "Ġpergu": 584,
      "dor": 585,
      "Ġsegu": 586,
      "tes": 587,
      "Ġaca": 588,
      "Ġagora": 589,
      "lar": 590,
      "Ãªs": 591,
      "Ġgran": 592,
      "ĠÃº": 593,
      "ntar": 594,
      "ido": 595,
      "ĠÃłs": 596,
      "Ġlogo": 597,
      "Ġaf": 598,
      "Ġassim": 599,
      "Ã¢": 600,
      "Ġgra": 601,
      "Ġpode": 602,
      "Ġbem": 603,
      "mar": 604,
      "gra": 605,
      "Ġaos": 606,
      "quela": 607,
      "enh": 608,
      "on": 609,
      "ses": 610,
      "Ġfosse": 611,
      "Ġeste": 612,
      "Ġpai": 613,
      "tÃ¡cio": 614,
      "gou": 615,
      "ist": 616,
      "Ġvis": 617,
      "Ġvida": 618,
      "Ġalguns": 619,
      "Ġpesso": 620,
      "tÃ£o": 621,
      "Ġhomem": 622,
      "Ġcabe": 623,
      "Ġach": 624,
      "Ġduas": 625,
      "gos": 626,
      "ĠU": 627,
      "Ġali": 628,
      "Ġverdade": 629,
      "jo": 630,
      "Ġeram": 631,
      "Ġsua": 632,
      "cor": 633,
      "Ġmim": 634,
      "elena": 635,
      "Ġvol": 636,
      "ĠcoraÃ§Ã£o": 637,
      "ĠSe": 638,
      "tor": 639,
      "por": 640,
      "Ġva": 641,
      "pÃŃ": 642,
      "Ġch": 643,
      "si": 644,
      "Ġsenti": 645,
      "Ġmal": 646,
      "ĠEste": 647,
      "ÃŃlia": 648,
      "Ġba": 649,
      "lhos": 650,
      "Ã§as": 651,
      "sÃ£o": 652,
      "Ġman": 653,
      "Ġpu": 654,
      "cis": 655,
      "eiro": 656,
      "ĠEu": 657,
      "ĠEra": 658,
      "ĠCa": 659,
      "osa": 660,
      "ĠQue": 661,
      "dar": 662,
      "je": 663,
      "Ġinter": 664,
      "Ġinte": 665,
      "Ġpela": 666,
      "ĠidÃ©": 667,
      "ĠJorge": 668,
      "cÃª": 669,
      "Ġmesma": 670,
      "pare": 671,
      "ĠpÃ©": 672,
      "lhor": 673,
      "tros": 674,
      "quele": 675,
      "Ġnas": 676,
      "Ġti": 677,
      "fa": 678,
      "tia": 679,
      "Ġlu": 680,
      "ni": 681,
      "Ġimp": 682,
      "gem": 683,
      "Ġouvi": 684,
      "Ġlon": 685,
      "Ġaqui": 686,
      "ĠRubiÃ£o": 687,
      "Ġconf": 688,
      "ĠmÃ£o": 689,
      "Ġconse": 690,
      "Ġcu": 691,
      "Ġlemb": 692,
      "ĠprÃ³p": 693,
      "rava": 694,
      "Ġest": 695,
      "Ġisso": 696,
      "cos": 697,
      "Ġdese": 698,
      "Ġrespo": 699,
      "pÃ©": 700,
      "undo": 701,
      "........": 702,
      "mas": 703,
      "Ġantes": 704,
      "Ġnoite": 705,
      "Ġseus": 706,
      "ĠNa": 707,
      "Ġanos": 708,
      "nÃ£o": 709,
      "Ã¡s": 710,
      "unca": 711,
      "ĠentÃ£o": 712,
      "ĠestÃ¡": 713,
      "Ġsor": 714,
      "Ġtodos": 715,
      "Ã¢n": 716,
      "Ġmelhor": 717,
      "gi": 718,
      "Ġcomp": 719,
      "Ġfez": 720,
      "II": 721,
      "nos": 722,
      "ingu": 723,
      "Ġgos": 724,
      "Ġdias": 725,
      "ĠHelena": 726,
      "ela": 727,
      "Ġpalavras": 728,
      "Ġgrande": 729,
      "ves": 730,
      "Ġcam": 731,
      "hora": 732,
      "cl": 733,
      "Ġtr": 734,
      "fer": 735,
      "Ġisto": 736,
      "Ġhavia": 737,
      "era": 738,
      "Es": 739,
      "uÃŃs": 740,
      "lher": 741,
      "lica": 742,
      "ĠEstÃ¡cio": 743,
      "dre": 744,
      "Ġcria": 745,
      "ĠPo": 746,
      "Ġami": 747,
      "ava": 748,
      "Ġrece": 749,
      "Ġpass": 750,
      "ĠSa": 751,
      "Ġamor": 752,
      "Ġad": 753,
      "amos": 754,
      "Ġcons": 755,
      "Ġcre": 756,
      "iam": 757,
      "rito": 758,
      "almente": 759,
      "Ġpassa": 760,
      "Ġdela": 761,
      "lt": 762,
      "Ġdeu": 763,
      "Ġoutros": 764,
      "el": 765,
      "rom": 766,
      "Ġdar": 767,
      "cias": 768,
      "Ã³ria": 769,
      "Ġcha": 770,
      "ÃŃvel": 771,
      "Ġtor": 772,
      "Ġges": 773,
      "ndeu": 774,
      "XX": 775,
      "cha": 776,
      "pen": 777,
      "ĠcabeÃ§a": 778,
      "lÃŃ": 779,
      "ura": 780,
      "Ġdele": 781,
      "tural": 782,
      "bar": 783,
      "Ġsei": 784,
      "Ġtodas": 785,
      "iÃ£o": 786,
      "Ġtar": 787,
      "aiÃ¡": 788,
      "hor": 789,
      "anhÃ£": 790,
      "pitu": 791,
      "ost": 792,
      "Ġfica": 793,
      "Ġfala": 794,
      "Ġqual": 795,
      "mes": 796,
      "Ġcoisas": 797,
      "esta": 798,
      "imo": 799,
      "Ġfora": 800,
      "ĠOs": 801,
      "ĠmÃ£os": 802,
      "gre": 803,
      "Ã³s": 804,
      "Ġfilha": 805,
      "ĠidÃ©ia": 806,
      "anto": 807,
      "vesse": 808,
      "Ġprecis": 809,
      "Ġru": 810,
      "diu": 811,
      "Ġesse": 812,
      "Ġfam": 813,
      "Ġalma": 814,
      "nda": 815,
      "Ġonde": 816,
      "rem": 817,
      "Ġnenh": 818,
      "Ġesque": 819,
      "Ġcarta": 820,
      "ofia": 821,
      "ĠPe": 822,
      "fere": 823,
      "Ġri": 824,
      "tamente": 825,
      "oso": 826,
      "ĠtrÃªs": 827,
      "ze": 828,
      "deu": 829,
      "Ġporta": 830,
      "Ġfazer": 831,
      "Ġfim": 832,
      "Ġbar": 833,
      "tica": 834,
      "para": 835,
      "ĠÃºlt": 836,
      "cess": 837,
      "Ã¼": 838,
      "Ġ\"": 839,
      "tante": 840,
      "Ġpelo": 841,
      "ĠLuÃŃs": 842,
      "Ġsenhora": 843,
      "Ġquem": 844,
      "uns": 845,
      "Ġprimeira": 846,
      "isse": 847,
      "Ġfu": 848,
      "NÃ£o": 849,
      "Ġeles": 850,
      "Ġescre": 851,
      "Ġmarido": 852,
      "Ġrep": 853,
      "ressa": 854,
      "Ġsenhor": 855,
      "ulo": 856,
      "Ġvia": 857,
      "paz": 858,
      "Ġtodo": 859,
      "Ġsobre": 860,
      "Ġleva": 861,
      "rim": 862,
      "pera": 863,
      "gue": 864,
      "ber": 865,
      "Ġcome": 866,
      "Ġvezes": 867,
      "esa": 868,
      "tado": 869,
      "Ġliv": 870,
      "Ġref": 871,
      "tiva": 872,
      "Ġce": 873,
      "Ġmeio": 874,
      "Ġsuas": 875,
      "ĠsÃ£o": 876,
      "Ġviu": 877,
      "Ġcontinu": 878,
      "Ġparecia": 879,
      "fÃŃ": 880,
      "Ã©s": 881,
      "eira": 882,
      "Ġperguntou": 883,
      "cla": 884,
      "Ġim": 885,
      "Ġgesto": 886,
      "gas": 887,
      "mentos": 888,
      "ĠAs": 889,
      "Ġdizia": 890,
      "omar": 891,
      "Ġr": 892,
      "uiomar": 893,
      "Ġrepe": 894,
      "ĠÃī": 895,
      "Ġraz": 896,
      "Ġale": 897,
      "Ġmulher": 898,
      "ĠCapitu": 899,
      "Ġtoda": 900,
      "Ġoutras": 901,
      "Ġnunca": 902,
      "riu": 903,
      "Ġfeli": 904,
      "Ġtarde": 905,
      "sas": 906,
      "zia": 907,
      "versa": 908,
      "Ġpalavra": 909,
      "Ġprin": 910,
      "ser": 911,
      "comp": 912,
      "dir": 913,
      "oi": 914,
      "Ġvir": 915,
      "tÃŃ": 916,
      "lÃ¡": 917,
      "gado": 918,
      "Ġvoz": 919,
      "Ġgente": 920,
      "Ġseria": 921,
      "Ã§os": 922,
      "Ġsim": 923,
      "inguÃ©m": 924,
      "Ġsus": 925,
      "rios": 926,
      "Ġnatural": 927,
      "ĠEstela": 928,
      "inte": 929,
      "ĠpÃ´": 930,
      "rias": 931,
      "Ġente": 932,
      "ino": 933,
      "ĠIaiÃ¡": 934,
      "ex": 935,
      "fim": 936,
      "tis": 937,
      "dades": 938,
      "Ġparte": 939,
      "cont": 940,
      "tivo": 941,
      "riste": 942,
      "Ġpessoa": 943,
      "Ġpra": 944,
      "Ġju": 945,
      "Ġfilho": 946,
      "ne": 947,
      "Ġamigo": 948,
      "ĠJÃ¡": 949,
      "Ġalgumas": 950,
      "Ġirm": 951,
      "cri": 952,
      "Ã¡rio": 953,
      "vidade": 954,
      "Ġamb": 955,
      "Ġminu": 956,
      "Ġprimeiro": 957,
      "pÃŃrito": 958,
      "Ġdef": 959,
      "Ġsala": 960,
      "ranÃ§a": 961,
      "Ġacha": 962,
      "ĠFi": 963,
      "Ġsempre": 964,
      "Ġfalar": 965,
      "Ġros": 966,
      "Ġtalvez": 967,
      "Ġrespondeu": 968,
      "ĠAl": 969,
      "rando": 970,
      "Ġboa": 971,
      "tiu": 972,
      "Ġlei": 973,
      "qÃ¼": 974,
      "Ġessa": 975,
      "Ġcomigo": 976,
      "Ġcaso": 977,
      "Ġdor": 978,
      "ume": 979,
      "Ã©u": 980,
      "pel": 981,
      "Ġtu": 982,
      "Ġbra": 983,
      "Ġficou": 984,
      "cÃŃ": 985,
      "Ġten": 986,
      "cidade": 987,
      "Ġja": 988,
      "Ġsaber": 989,
      "dro": 990,
      "ĠvocÃª": 991,
      "usa": 992,
      "Ġhoras": 993,
      "lidade": 994,
      "Ġqui": 995,
      "ĠQuando": 996,
      "ristÃ£o": 997,
      "mi": 998,
      "mu": 999,
      "tem": 1000,
      "guia": 1001,
      "Ġnome": 1002,
      "tua": 1003,
      "ĠDias": 1004,
      "Ġrefle": 1005,
      "ĠrazÃ£o": 1006,
      "ÃŃn": 1007,
      "ĠEnt": 1008,
      "Ġpensa": 1009,
      "Ġtanto": 1010,
      "lhas": 1011,
      "ntem": 1012,
      "zer": 1013,
      "ĠfamÃŃlia": 1014,
      "pro": 1015,
      "vir": 1016,
      "quer": 1017,
      "ressÃ£o": 1018,
      "sar": 1019,
      "Ġtran": 1020,
      "Ġor": 1021,
      "Ġacab": 1022,
      "sem": 1023,
      "lhes": 1024,
      "Ġama": 1025,
      "ĠCar": 1026,
      "Ġsimp": 1027,
      "Ã©di": 1028,
      "ĠespÃŃrito": 1029,
      "ntro": 1030,
      "Ġconhe": 1031,
      "Ġjan": 1032,
      "Ã´n": 1033,
      "Ġparti": 1034,
      "bra": 1035,
      "ven": 1036,
      "ĠSofia": 1037,
      "ĠUm": 1038,
      "Ġpadre": 1039,
      "mou": 1040,
      "ent": 1041,
      "Ġqueria": 1042,
      "Ġvinha": 1043,
      "Ġsou": 1044,
      "mais": 1045,
      "sos": 1046,
      "lÃªn": 1047,
      "sÃŃvel": 1048,
      "Ġmodo": 1049,
      "ntava": 1050,
      "Ġrosto": 1051,
      "gina": 1052,
      "Ġtriste": 1053,
      "ana": 1054,
      "Ġcerto": 1055,
      "ires": 1056,
      "tÃ©": 1057,
      "Ġro": 1058,
      "dava": 1059,
      "for": 1060,
      "ju": 1061,
      "quanto": 1062,
      "Ġsent": 1063,
      "dido": 1064,
      "bu": 1065,
      "ixo": 1066,
      "inhas": 1067,
      "Ã¢ncia": 1068,
      "Ġminutos": 1069,
      "dou": 1070,
      "lora": 1071,
      "Ãºva": 1072,
      "Ġbom": 1073,
      "par": 1074,
      "Ġcal": 1075,
      "iÃ§Ã£o": 1076,
      "arcia": 1077,
      "ĠNo": 1078,
      "Ġsub": 1079,
      "vou": 1080,
      "Ġven": 1081,
      "Ġvai": 1082,
      "enas": 1083,
      "anha": 1084,
      "Ġbas": 1085,
      "cho": 1086,
      "vos": 1087,
      "eita": 1088,
      "Ġfazia": 1089,
      "Ġima": 1090,
      "rer": 1091,
      "ĠpolÃŃ": 1092,
      "fo": 1093,
      "Ã¡vel": 1094,
      "ĠAo": 1095,
      "ĠPaulo": 1096,
      "mor": 1097,
      "dÃ©lia": 1098,
      "vas": 1099,
      "tulo": 1100,
      "culo": 1101,
      "Ġgu": 1102,
      "vida": 1103,
      "onesa": 1104,
      "tei": 1105,
      "cido": 1106,
      "Ġparece": 1107,
      "ĠDeus": 1108,
      "ĠTal": 1109,
      "Ġapenas": 1110,
      "ĠGuiomar": 1111,
      "Ġpreciso": 1112,
      "Ġsimples": 1113,
      "nder": 1114,
      "sou": 1115,
      "Ġgo": 1116,
      "Ġespa": 1117,
      "ĠOu": 1118,
      "ĠGarcia": 1119,
      "Ġambos": 1120,
      "Ġocas": 1121,
      "ĠninguÃ©m": 1122,
      "Ġestar": 1123,
      "Ġpessoas": 1124,
      "Ġapare": 1125,
      "ĠcÃ¡": 1126,
      "inal": 1127,
      "ÃŃa": 1128,
      "Ġsair": 1129,
      "Ġtorn": 1130,
      "lÃªncio": 1131,
      "irg": 1132,
      "unha": 1133,
      "tre": 1134,
      "Ġmundo": 1135,
      "Ã§ar": 1136,
      "Ġveio": 1137,
      "Ġquase": 1138,
      "ĠprÃ³prio": 1139,
      "Ġmis": 1140,
      "Ã§ou": 1141,
      "Ġfiz": 1142,
      "ĠRe": 1143,
      "Ġer": 1144,
      "tal": 1145,
      "Ġsabe": 1146,
      "nh": 1147,
      "tando": 1148,
      "Ġolhar": 1149,
      "ado": 1150,
      "vÃ£o": 1151,
      "Ġdevia": 1152,
      "este": 1153,
      "ĠCon": 1154,
      "min": 1155,
      "Ġpapel": 1156,
      "gua": 1157,
      "irou": 1158,
      "Ġmi": 1159,
      "Ġconversa": 1160,
      "ĠviÃºva": 1161,
      "Ġhora": 1162,
      "posta": 1163,
      "Ġlado": 1164,
      "dÃ£o": 1165,
      "rado": 1166,
      "Ġtro": 1167,
      "Ġesti": 1168,
      "Ġmorte": 1169,
      "como": 1170,
      "ĠSÃ£o": 1171,
      "Ġlonge": 1172,
      "Ġrua": 1173,
      "Ġpres": 1174,
      "iros": 1175,
      "Ġmeus": 1176,
      "ĠnotÃŃ": 1177,
      "Ġdesde": 1178,
      "ĠVo": 1179,
      "ada": 1180,
      "pu": 1181,
      "Ġcost": 1182,
      "osÃ©": 1183,
      "eiÃ§Ã£o": 1184,
      "Ġhou": 1185,
      "can": 1186,
      "Ġcui": 1187,
      "ĠvÃª": 1188,
      "cara": 1189,
      "Ġachou": 1190,
      "Ġjantar": 1191,
      "irgÃŃlia": 1192,
      "Ġop": 1193,
      "men": 1194,
      "gava": 1195,
      "ĠUma": 1196,
      "tividade": 1197,
      "Ġbaronesa": 1198,
      "ĠFidÃ©lia": 1199,
      "dis": 1200,
      "var": 1201,
      "inas": 1202,
      "ump": 1203,
      "Ġhoje": 1204,
      "Ġnecess": 1205,
      "guiar": 1206,
      "ĠpÃ¡": 1207,
      "Ġbei": 1208,
      "ĠEm": 1209,
      "ĠsilÃªncio": 1210,
      "Ġci": 1211,
      "veu": 1212,
      "Ġjo": 1213,
      "Ġsol": 1214,
      "................": 1215,
      "ĠPedro": 1216,
      "ntas": 1217,
      "cava": 1218,
      "Ġvelho": 1219,
      "Ġnossa": 1220,
      "ĠPois": 1221,
      "Ġcreio": 1222,
      "lor": 1223,
      "reu": 1224,
      "cida": 1225,
      "ĠTristÃ£o": 1226,
      "Ġcin": 1227,
      "ĠAires": 1228,
      "Ġcasamento": 1229,
      "ĠFlora": 1230,
      "riso": 1231,
      "Ġgosto": 1232,
      "gia": 1233,
      "ten": 1234,
      "Ġau": 1235,
      "argo": 1236,
      "Ġmuita": 1237,
      "preen": 1238,
      "Ġobs": 1239,
      "Ġacaba": 1240,
      "ĠX": 1241,
      "Ġbus": 1242,
      "Ġdigo": 1243,
      "Ġexpli": 1244,
      "eu": 1245,
      "tantes": 1246,
      "ene": 1247,
      "ĠporÃ©m": 1248,
      "Ġ/": 1249,
      "rece": 1250,
      "dente": 1251,
      "Ġponto": 1252,
      "Ġpoder": 1253,
      "Ġesc": 1254,
      "ĠÃºni": 1255,
      "ĠocasiÃ£o": 1256,
      "Ġdentro": 1257,
      "Ġga": 1258,
      "ĠHÃ¡": 1259,
      "Ġrapaz": 1260,
      "ral": 1261,
      "Ġpi": 1262,
      "ciÃªncia": 1263,
      "solu": 1264,
      "Ġsusp": 1265,
      "bro": 1266,
      "Ġanti": 1267,
      "Ġrecu": 1268,
      "cil": 1269,
      "titu": 1270,
      "ĠCam": 1271,
      "Ġsaiu": 1272,
      "Ġresp": 1273,
      "roux": 1274,
      "Ġlivro": 1275,
      "Ġcontinuou": 1276,
      "nho": 1277,
      "pio": 1278,
      "Ġuns": 1279,
      "ĠmanhÃ£": 1280,
      "Ã£e": 1281,
      "Ġdava": 1282,
      "fÃŃcio": 1283,
      "ntado": 1284,
      "Ġtraba": 1285,
      "Ġnenhuma": 1286,
      "nas": 1287,
      "sula": 1288,
      "ĠforÃ§a": 1289,
      "nha": 1290,
      "Ġaquela": 1291,
      "cul": 1292,
      "ĠcontrÃ¡": 1293,
      "rÃ¡s": 1294,
      "rsula": 1295,
      "ļrsula": 1296,
      "Ġsal": 1297,
      "tanto": 1298,
      "uiu": 1299,
      "ĠTalvez": 1300,
      "dr": 1301,
      "feito": 1302,
      "tr": 1303,
      "Ġfui": 1304,
      "damente": 1305,
      "Ã©ria": 1306,
      "cie": 1307,
      "ĠJosÃ©": 1308,
      "ais": 1309,
      "Ġcan": 1310,
      "Ġmaior": 1311,
      "Ġquis": 1312,
      "cular": 1313,
      "Ġsob": 1314,
      "Ġresto": 1315,
      "Ġdesa": 1316,
      "ntei": 1317,
      "rir": 1318,
      "vor": 1319,
      "Ġagra": 1320,
      "Ġesco": 1321,
      "lheiro": 1322,
      "vent": 1323,
      "Ġacei": 1324,
      "Ġentrou": 1325,
      "ĠFoi": 1326,
      "Ġdeixou": 1327,
      "erra": 1328,
      "deira": 1329,
      "laÃ§Ã£o": 1330,
      "Ġdirei": 1331,
      "Ġindi": 1332,
      "ĠprÃ³pria": 1333,
      "ĠprincÃŃ": 1334,
      "ini": 1335,
      "essa": 1336,
      "Ġval": 1337,
      "Ġouvir": 1338,
      "ĠVirgÃŃlia": 1339,
      "Ġprese": 1340,
      "che": 1341,
      "pressa": 1342,
      "ĠAnt": 1343,
      "ixÃ£o": 1344,
      "Ġacu": 1345,
      "Ġmos": 1346,
      "veis": 1347,
      "Ġalmo": 1348,
      "Ġforam": 1349,
      "Ġquatro": 1350,
      "ĠCarmo": 1351,
      "tir": 1352,
      "Ġsin": 1353,
      "ĠAguiar": 1354,
      "Ġhaver": 1355,
      "Ġdeles": 1356,
      "ĠPro": 1357,
      "Ġpeque": 1358,
      "ntade": 1359,
      "ĠVi": 1360,
      "Ġaper": 1361,
      "Ġaleg": 1362,
      "vem": 1363,
      "reza": 1364,
      "Ġrec": 1365,
      "Ġconcl": 1366,
      "Ġdespe": 1367,
      "Ġhomens": 1368,
      "Ġsabia": 1369,
      "pas": 1370,
      "Ġdez": 1371,
      "dem": 1372,
      "âĢĿ": 1373,
      "ĠPor": 1374,
      "ĠMaria": 1375,
      "Ã´nia": 1376,
      "ĠnÃ³s": 1377,
      "Ġestra": 1378,
      "Ġamigos": 1379,
      "dÃªncia": 1380,
      "ĠÃŃ": 1381,
      "Ġsau": 1382,
      "Ġanda": 1383,
      "Ġnosso": 1384,
      "Ġteve": 1385,
      "Ġinterrom": 1386,
      "Ġ1": 1387,
      "ens": 1388,
      "sol": 1389,
      "fica": 1390,
      "ĠRua": 1391,
      "iz": 1392,
      "quei": 1393,
      "Ġjus": 1394,
      "Ġneg": 1395,
      "Ġaba": 1396,
      "Ġquer": 1397,
      "orba": 1398,
      "cios": 1399,
      "vera": 1400,
      "Ġinf": 1401,
      "Ġenfim": 1402,
      "Ġapro": 1403,
      "Ġboca": 1404,
      "Ġchegou": 1405,
      "pÃŃtulo": 1406,
      "lado": 1407,
      "cera": 1408,
      "usÃ£o": 1409,
      "Ġentrar": 1410,
      "Ġseguinte": 1411,
      "Ġnenhum": 1412,
      "Ġacabou": 1413,
      "gio": 1414,
      "Ġnova": 1415,
      "Ġficar": 1416,
      "ĠlÃ¡g": 1417,
      "Co": 1418,
      "cip": 1419,
      "desse": 1420,
      "gÃªn": 1421,
      "incas": 1422,
      "ĠmoÃ§o": 1423,
      "Ġmostra": 1424,
      "mira": 1425,
      "Ġcump": 1426,
      "ero": 1427,
      "esar": 1428,
      "Ġfra": 1429,
      "Ġbi": 1430,
      "ĠÃļrsula": 1431,
      "Ġfeliz": 1432,
      "ĠprincÃŃpio": 1433,
      "gn": 1434,
      "tina": 1435,
      "Ġcava": 1436,
      "uni": 1437,
      "ĠpÃ´de": 1438,
      "Ġmeses": 1439,
      "Ġvontade": 1440,
      "Ġdura": 1441,
      "Ġreflex": 1442,
      "Ru": 1443,
      "resse": 1444,
      "ĠsaÃŃ": 1445,
      "Ġapre": 1446,
      "ĠCom": 1447,
      "Ġouviu": 1448,
      "Ġjanela": 1449,
      "Ã©rio": 1450,
      "Ġcabo": 1451,
      "Ġcontra": 1452,
      "ĠBorba": 1453,
      "ĠComo": 1454,
      "companh": 1455,
      "Ġaquele": 1456,
      "div": 1457,
      "ard": 1458,
      "arga": 1459,
      "conte": 1460,
      "dida": 1461,
      "Ġsentimento": 1462,
      "ĠirmÃ£": 1463,
      "tuaÃ§Ã£o": 1464,
      "pr": 1465,
      "ĠNem": 1466,
      "Ġdeste": 1467,
      "Ġaten": 1468,
      "Ġinstante": 1469,
      "Ġdei": 1470,
      "Ġdepressa": 1471,
      "Ġestou": 1472,
      "ĠTinha": 1473,
      "rimas": 1474,
      "ĠAlves": 1475,
      "ĠcontrÃ¡rio": 1476,
      "Ġado": 1477,
      "cado": 1478,
      "Ġbe": 1479,
      "Ġdifere": 1480,
      "Ġcada": 1481,
      "Ġcausa": 1482,
      "Ġcasar": 1483,
      "Ġora": 1484,
      "ĠEle": 1485,
      "cial": 1486,
      "Ġler": 1487,
      "vol": 1488,
      "Ġfalou": 1489,
      "duz": 1490,
      "Ġinstantes": 1491,
      "cÃ¡": 1492,
      "lÃ³": 1493,
      "Ġves": 1494,
      "algum": 1495,
      "Ġconvi": 1496,
      "tureza": 1497,
      "Ġprop": 1498,
      "Ġpasse": 1499,
      "Ġtrazia": 1500,
      "RubiÃ£o": 1501,
      "gan": 1502,
      "plo": 1503,
      "xa": 1504,
      "Ġ(": 1505,
      "ĠÃ¡": 1506,
      "Ġseja": 1507,
      "Ġreco": 1508,
      "guei": 1509,
      "tido": 1510,
      "tudo": 1511,
      "Ġquar": 1512,
      "Ġpareceu": 1513,
      "conhe": 1514,
      "Ġcorre": 1515,
      "ĠNatividade": 1516,
      "pou": 1517,
      "Ġdeve": 1518,
      "dei": 1519,
      "peu": 1520,
      "chior": 1521,
      "ĠEstevÃ£o": 1522,
      "Ġlugar": 1523,
      "elchior": 1524,
      "Ġano": 1525,
      "ĠvÃ¡": 1526,
      "ĠcapÃŃtulo": 1527,
      "ĠTambÃ©m": 1528,
      "Ġarran": 1529,
      "Ġiam": 1530,
      "Ġgrandes": 1531,
      "eram": 1532,
      "ine": 1533,
      "Ġescu": 1534,
      "tavam": 1535,
      "Ãºb": 1536,
      "Ġdizendo": 1537,
      "EstÃ¡cio": 1538,
      "Ġtenho": 1539,
      "Ġparticular": 1540,
      "ĠpolÃŃtica": 1541,
      "ĠnotÃŃcia": 1542,
      "itas": 1543,
      "ista": 1544,
      "Ġfran": 1545,
      "ĠTo": 1546,
      "Ġdesejo": 1547,
      "Pa": 1548,
      "beu": 1549,
      "Ãªncias": 1550,
      "Ġdiante": 1551,
      "Ġvolta": 1552,
      "Ġpassou": 1553,
      "Ġviagem": 1554,
      "Ġtrans": 1555,
      "ito": 1556,
      "tÃ³": 1557,
      "gura": 1558,
      "ciosa": 1559,
      "resce": 1560,
      "ĠPer": 1561,
      "ranÃ§as": 1562,
      "Ġhum": 1563,
      "III": 1564,
      "imos": 1565,
      "teu": 1566,
      "Ġcara": 1567,
      "Ġresposta": 1568,
      "Ġexplica": 1569,
      "Ġcostume": 1570,
      "gando": 1571,
      "Ġmem": 1572,
      "Ġnaturalmente": 1573,
      "ĠaÃŃ": 1574,
      "tico": 1575,
      "ĠRita": 1576,
      "ĠPara": 1577,
      "ĠgraÃ§a": 1578,
      "Ġcur": 1579,
      "gir": 1580,
      "Ġmin": 1581,
      "Ġestas": 1582,
      "Ġdaquela": 1583,
      "caÃ§Ã£o": 1584,
      "cimento": 1585,
      "ĠAgora": 1586,
      "Ġacor": 1587,
      "Ġarre": 1588,
      "Ġobri": 1589,
      "Ġposso": 1590,
      "Ġqualquer": 1591,
      "Ġcinco": 1592,
      "ces": 1593,
      "cando": 1594,
      "Ġlhes": 1595,
      "lan": 1596,
      "ĠchÃ¡": 1597,
      "ĠirmÃ£o": 1598,
      "ĠVocÃª": 1599,
      "Jorge": 1600,
      "ala": 1601,
      "fei": 1602,
      "rindo": 1603,
      "rada": 1604,
      "ĠEn": 1605,
      "amÃ£e": 1606,
      "dio": 1607,
      "uito": 1608,
      "Ġmuitas": 1609,
      "ĠQuincas": 1610,
      "Ġpassado": 1611,
      "Na": 1612,
      "tÃ¢ncia": 1613,
      "Ġtre": 1614,
      "orre": 1615,
      "Ã¡ria": 1616,
      "Ġban": 1617,
      "irc": 1618,
      "ĠÃ³": 1619,
      "ntada": 1620,
      "ĠsituaÃ§Ã£o": 1621,
      "Ġimpor": 1622,
      "Ġconcluiu": 1623,
      "ĠcÃ©u": 1624,
      "Ġesca": 1625,
      "alidade": 1626,
      "Ġigu": 1627,
      "ĠSim": 1628,
      "sunto": 1629,
      "Ġdeixar": 1630,
      "Ġpassar": 1631,
      "Ġcrer": 1632,
      "Ġfelicidade": 1633,
      "cen": 1634,
      "iniÃ£o": 1635,
      "lei": 1636,
      "ĠpaixÃ£o": 1637,
      "iramente": 1638,
      "Ġpasso": 1639,
      "Ġtais": 1640,
      "Ġcerta": 1641,
      "ĠidÃ©ias": 1642,
      "Ġconselheiro": 1643,
      "ĠlÃ¡grimas": 1644,
      "clu": 1645,
      "gna": 1646,
      "pli": 1647,
      "Ġrom": 1648,
      "Ġelas": 1649,
      "inar": 1650,
      "Ġesp": 1651,
      "Ġvelha": 1652,
      "Ġencont": 1653,
      "Ġtinham": 1654,
      "Ã´s": 1655,
      "Ġtivesse": 1656,
      "Ġadmira": 1657,
      "ircuns": 1658,
      "cei": 1659,
      "ĠSu": 1660,
      "ĠEsta": 1661,
      "Este": 1662,
      "ĠÃºltima": 1663,
      "Ġtri": 1664,
      "ĠTudo": 1665,
      "Ġenquanto": 1666,
      "ĠQuem": 1667,
      "bora": 1668,
      "ĠpossÃŃvel": 1669,
      "Ġamiga": 1670,
      "Ġfutu": 1671,
      "tivamente": 1672,
      "ĠEntÃ£o": 1673,
      "bas": 1674,
      "issÃ£o": 1675,
      "Ġfre": 1676,
      "Ġmeia": 1677,
      "Ġfilhos": 1678,
      "ĠexpressÃ£o": 1679,
      "Ġcaminho": 1680,
      "Ġsentia": 1681,
      "dado": 1682,
      "cob": 1683,
      "Ġnatureza": 1684,
      "dita": 1685,
      "inhos": 1686,
      "XXX": 1687,
      "ntemp": 1688,
      "Ã©dico": 1689,
      "gÃªnia": 1690,
      "Ġdurante": 1691,
      "isa": 1692,
      "ĠdaÃŃ": 1693,
      "Ġjard": 1694,
      "Ġachei": 1695,
      "Ġvale": 1696,
      "Ġsentiu": 1697,
      "Ġconfess": 1698,
      "Ġconsigo": 1699,
      "Ġimagina": 1700,
      "Ġnecessidade": 1701,
      "ĠnegÃ³": 1702,
      "Ġadiv": 1703,
      "Ġpla": 1704,
      "Ġquero": 1705,
      "Ġmotivo": 1706,
      "Ġexcla": 1707,
      "ĠesperanÃ§a": 1708,
      "Ġfalava": 1709,
      "Ġachava": 1710,
      "ida": 1711,
      "lÃ³ria": 1712,
      "Ġfin": 1713,
      "Ġdaquele": 1714,
      "Ġrecor": 1715,
      "tuna": 1716,
      "ĠMa": 1717,
      "ĠEsco": 1718,
      "Ġleitor": 1719,
      "Ġ18": 1720,
      "De": 1721,
      "disse": 1722,
      "Ġafe": 1723,
      "dez": 1724,
      "ĠCre": 1725,
      "Ġincl": 1726,
      "Ġpedir": 1727,
      "Ġhist": 1728,
      "posiÃ§Ã£o": 1729,
      "ĠdÃ¡": 1730,
      "outra": 1731,
      "lava": 1732,
      "imas": 1733,
      "Ġretra": 1734,
      "Ġnaquela": 1735,
      "Ġdest": 1736,
      "gada": 1737,
      "Ġprof": 1738,
      "ĠDepois": 1739,
      "ĠafeiÃ§Ã£o": 1740,
      "bia": 1741,
      "eta": 1742,
      "tinha": 1743,
      "Ġclar": 1744,
      "sei": 1745,
      "senti": 1746,
      "Ġtroux": 1747,
      "Ġrela": 1748,
      "Ġconfia": 1749,
      "casa": 1750,
      "velmente": 1751,
      "ĠPalha": 1752,
      "Ġvoltou": 1753,
      "Ġlonga": 1754,
      "Ġprincip": 1755,
      "drinha": 1756,
      "Era": 1757,
      "cÃ³p": 1758,
      "ndia": 1759,
      "ur": 1760,
      "Ġatra": 1761,
      "inou": 1762,
      "Ġvou": 1763,
      "ali": 1764,
      "alÃ©ria": 1765,
      "Ġass": 1766,
      "Ġassunto": 1767,
      "ĠalÃ©m": 1768,
      "mava": 1769,
      "ĠEstÃ¡": 1770,
      "Ġenca": 1771,
      "Ġprocu": 1772,
      "Ġprimeiros": 1773,
      "Ġdeixa": 1774,
      "Ġvista": 1775,
      "cendo": 1776,
      "Ġconte": 1777,
      "ĠEla": 1778,
      "Ġembora": 1779,
      "ĠquÃª": 1780,
      "Ġidade": 1781,
      "endonÃ§a": 1782,
      "Ġachar": 1783,
      "Ġesten": 1784,
      "gueu": 1785,
      "ĠopiniÃ£o": 1786,
      "cÃ³pio": 1787,
      "Ġcos": 1788,
      "ĠmÃ©dico": 1789,
      "ntando": 1790,
      "Ġnar": 1791,
      "Ġamar": 1792,
      "ĠRio": 1793,
      "Ġcarro": 1794,
      "terna": 1795,
      "chou": 1796,
      "ĠAssim": 1797,
      "Ġquarto": 1798,
      "Ġefeito": 1799,
      "Ġcus": 1800,
      "vamos": 1801,
      "ĠCas": 1802,
      "pai": 1803,
      "Ġpediu": 1804,
      "Ġmuitos": 1805,
      "certo": 1806,
      "Ġcartas": 1807,
      "Ġinten": 1808,
      "Ġestre": 1809,
      "Ġsorriu": 1810,
      "Ġtornou": 1811,
      "Ġalegria": 1812,
      "rs": 1813,
      "Ġconta": 1814,
      "Ġdesta": 1815,
      "Ġsomb": 1816,
      "ĠSantos": 1817,
      "qÃ¼i": 1818,
      "Ġacudiu": 1819,
      "No": 1820,
      "rmu": 1821,
      "sen": 1822,
      "Quando": 1823,
      "Ġmesa": 1824,
      "taria": 1825,
      "Ġtive": 1826,
      "Ġlembra": 1827,
      "Ġdorm": 1828,
      "ĠbraÃ§os": 1829,
      "tempo": 1830,
      "Ġbeij": 1831,
      "inÃ¡rio": 1832,
      "lhar": 1833,
      "anas": 1834,
      "Ġbri": 1835,
      "respo": 1836,
      "Ġpobre": 1837,
      "ĠaliÃ¡s": 1838,
      "ĠÃºltimo": 1839,
      "Ã©spera": 1840,
      "ĠAntÃ´nia": 1841,
      "ao": 1842,
      "prime": 1843,
      "Ġdou": 1844,
      "Ġcidade": 1845,
      "eria": 1846,
      "Ġflor": 1847,
      "Ġmedo": 1848,
      "pec": 1849,
      "mora": 1850,
      "rasse": 1851,
      "Ġexem": 1852,
      "ĠVe": 1853,
      "Ġterra": 1854,
      "Ġgrave": 1855,
      "Ġjardim": 1856,
      "gens": 1857,
      "sando": 1858,
      "vÃ¡": 1859,
      "Ġcima": 1860,
      "ĠMelchior": 1861,
      "Ġprova": 1862,
      "ĠLo": 1863,
      "Ġestavam": 1864,
      "Ġposto": 1865,
      "Ġconser": 1866,
      "serva": 1867,
      "ĠmemÃ³ria": 1868,
      "Helena": 1869,
      "ĠdÃº": 1870,
      "Ġcircuns": 1871,
      "Ġdisso": 1872,
      "Ġsatis": 1873,
      "Ġvinte": 1874,
      "cur": 1875,
      "ĠamanhÃ£": 1876,
      "Ġapesar": 1877,
      "possÃŃvel": 1878,
      "edade": 1879,
      "olhos": 1880,
      "vis": 1881,
      "Ġris": 1882,
      "Ġacompanh": 1883,
      "ĠmÃ¡": 1884,
      "ĠtÃŃ": 1885,
      "Ġtira": 1886,
      "mem": 1887,
      "ĠCÃ©u": 1888,
      "Ġcair": 1889,
      "Ġinve": 1890,
      "Ġolhou": 1891,
      "bilidade": 1892,
      "Ġpoucos": 1893,
      "Ġaborre": 1894,
      "Ġafir": 1895,
      "Ġafli": 1896,
      "ĠchÃ£o": 1897,
      "Ġcama": 1898,
      "ĠcrianÃ§a": 1899,
      "Ġficava": 1900,
      "Ġalegre": 1901,
      "Ġagrade": 1902,
      "Ġinterrompeu": 1903,
      "dÃ¡": 1904,
      "iras": 1905,
      "zo": 1906,
      "Ġcho": 1907,
      "Ġcontemp": 1908,
      "ins": 1909,
      "Ġestu": 1910,
      "Ġdaqui": 1911,
      "emos": 1912,
      "cons": 1913,
      "Ġmadrinha": 1914,
      "diÃ§Ã£o": 1915,
      "ĠDa": 1916,
      "tasse": 1917,
      "Ġpena": 1918,
      "Ġcedo": 1919,
      "tista": 1920,
      "tri": 1921,
      "paraÃ§Ã£o": 1922,
      "Ġint": 1923,
      "Ġexa": 1924,
      "ĠJus": 1925,
      "Ġbon": 1926,
      "ĠalguÃ©m": 1927,
      "ĠEugÃªnia": 1928,
      "Ġluz": 1929,
      "Ġtrabalho": 1930,
      "Ġsobr": 1931,
      "eri": 1932,
      "Ġfar": 1933,
      "Ġdali": 1934,
      "Ã§ava": 1935,
      "Ġsoli": 1936,
      "Ġsomente": 1937,
      "Ġchega": 1938,
      "man": 1939,
      "rÃ©": 1940,
      "Ġdir": 1941,
      "Ġamo": 1942,
      "Ġaconte": 1943,
      "espe": 1944,
      "Ġsan": 1945,
      "tada": 1946,
      "taÃ§Ã£o": 1947,
      "ĠSr": 1948,
      "Ġsup": 1949,
      "Ġcorpo": 1950,
      "pÃ©cie": 1951,
      "Ġguar": 1952,
      "Ġmissa": 1953,
      "ndi": 1954,
      "wal": 1955,
      "Ġdelas": 1956,
      "Ġtia": 1957,
      "Ġfei": 1958,
      "Ġfaria": 1959,
      "lhete": 1960,
      "Ġdiga": 1961,
      "Ġboni": 1962,
      "Ġacabar": 1963,
      "Ġinteresse": 1964,
      "Ġprazer": 1965,
      "ĠEscobar": 1966,
      "wald": 1967,
      "Ġato": 1968,
      "aso": 1969,
      "Ġcompreen": 1970,
      "Ġresolu": 1971,
      "Ġbela": 1972,
      "ress": 1973,
      "Ġcapaz": 1974,
      "Ġtom": 1975,
      "Ġmorrer": 1976,
      "inheiro": 1977,
      "Ġpassos": 1978,
      "ĠchÃ¡cara": 1979,
      "bri": 1980,
      "cesse": 1981,
      "far": 1982,
      "rin": 1983,
      "remos": 1984,
      "ismo": 1985,
      "Ġfina": 1986,
      "Ġfeito": 1987,
      "Ġconsu": 1988,
      "Ġfigura": 1989,
      "culos": 1990,
      "Ġsensa": 1991,
      "ĠBo": 1992,
      "assem": 1993,
      "Ġvisita": 1994,
      "Ġsentimentos": 1995,
      "ĠSanta": 1996,
      "ĠconsciÃªncia": 1997,
      "ĠCreio": 1998,
      "quando": 1999,
      "âĢľ": 2000,
      "Ġcala": 2001,
      "Ġlan": 2002,
      "ĠpÃ©s": 2003,
      "Ã©dio": 2004,
      "Ġsaudades": 2005,
      "alau": 2006,
      "\".": 2007,
      "atro": 2008,
      "giu": 2009,
      "Ġcru": 2010,
      "Ġminhas": 2011,
      "Ġnele": 2012,
      "Ġtio": 2013,
      "Ġtesta": 2014,
      "dera": 2015,
      "Ġpade": 2016,
      "Ġentra": 2017,
      "Ġcontar": 2018,
      "Ġmenina": 2019,
      "jeto": 2020,
      "ĠPode": 2021,
      "ĠEntre": 2022,
      "ĠconversaÃ§Ã£o": 2023,
      "cÃ³": 2024,
      "ĠespÃ©cie": 2025,
      "teza": 2026,
      "Ġbre": 2027,
      "Ġpodiam": 2028,
      "nhos": 2029,
      "ĠalmoÃ§o": 2030,
      "ĠreflexÃ£o": 2031,
      "Ġconsul": 2032,
      "VI": 2033,
      "atista": 2034,
      "lÃ©": 2035,
      "xo": 2036,
      "Ġder": 2037,
      "queles": 2038,
      "ĠvÃ©spera": 2039,
      "palav": 2040,
      "Ġing": 2041,
      "Ġperder": 2042,
      "Ġteria": 2043,
      "tern": 2044,
      "Ġsegunda": 2045,
      "Ġrepetiu": 2046,
      "Ġhouvesse": 2047,
      "ĠÃºnica": 2048,
      "Ġfuturo": 2049,
      "idades": 2050,
      "segu": 2051,
      "Ġdesp": 2052,
      "ĠOh": 2053,
      "Ġfavor": 2054,
      "Ġacresce": 2055,
      "bede": 2056,
      "ĠsenÃ£o": 2057,
      "Ġmuda": 2058,
      "Ġobra": 2059,
      "feriu": 2060,
      "Ġrecebeu": 2061,
      "ĠcomeÃ§ou": 2062,
      "Ġrespeito": 2063,
      "Ġpresente": 2064,
      "Ġapo": 2065,
      "Ġouvia": 2066,
      "lico": 2067,
      "horas": 2068,
      "Ġdito": 2069,
      "ĠSÃ³": 2070,
      "diante": 2071,
      "Ġprome": 2072,
      "Ġprima": 2073,
      "Ġfalta": 2074,
      "istÃ©rio": 2075,
      "ĠOswald": 2076,
      "Ġescrever": 2077,
      "Ġriso": 2078,
      "Ġanter": 2079,
      "Ġontem": 2080,
      "Ã©r": 2081,
      "Ġumas": 2082,
      "Ã³si": 2083,
      "Ġconver": 2084,
      "Ġdesse": 2085,
      "Ġviz": 2086,
      "vido": 2087,
      "ĠMendonÃ§a": 2088,
      "cupa": 2089,
      "nada": 2090,
      "Ġexce": 2091,
      "lhante": 2092,
      "posto": 2093,
      "ĠParece": 2094,
      "Ġcurios": 2095,
      "Ġlivros": 2096,
      "Ġcansa": 2097,
      "ĠatenÃ§Ã£o": 2098,
      "Mas": 2099,
      "ab": 2100,
      "cem": 2101,
      "Ġomb": 2102,
      "Ġfundo": 2103,
      "orte": 2104,
      "ĠsÃ©": 2105,
      "Ġdomin": 2106,
      "guns": 2107,
      "Ġmoral": 2108,
      "Ġacer": 2109,
      "ĠValÃ©ria": 2110,
      "Ãºm": 2111,
      "ĠatrÃ¡s": 2112,
      "mbarga": 2113,
      "Ġsegundo": 2114,
      "Ġcabelos": 2115,
      "Ġgover": 2116,
      "ĠhistÃ³ria": 2117,
      "mbargador": 2118,
      "Guiomar": 2119,
      "ainda": 2120,
      "elas": 2121,
      "pira": 2122,
      "sse": 2123,
      "udia": 2124,
      "Ġaus": 2125,
      "reira": 2126,
      "Ġnu": 2127,
      "ropa": 2128,
      "Ġnovo": 2129,
      "Ãªm": 2130,
      "Ġcadeira": 2131,
      "ciam": 2132,
      "Ġjor": 2133,
      "rande": 2134,
      "Ġletra": 2135,
      "ĠTe": 2136,
      "Ġprov": 2137,
      "Ġabriu": 2138,
      "Ġforte": 2139,
      "Ġbaix": 2140,
      "Ġpudesse": 2141,
      "Ġlembrou": 2142,
      "Ġsorrindo": 2143,
      "ĠtranqÃ¼i": 2144,
      "Ġsoube": 2145,
      "Ġhouve": 2146,
      "Ġbilhete": 2147,
      "dras": 2148,
      "jus": 2149,
      "minha": 2150,
      "muito": 2151,
      "Ġmost": 2152,
      "ronte": 2153,
      "imi": 2154,
      "anÃ§a": 2155,
      "Ġment": 2156,
      "tida": 2157,
      "cela": 2158,
      "Ġpedia": 2159,
      "Ġleu": 2160,
      "Ġacaso": 2161,
      "Ġsuper": 2162,
      "Ġhes": 2163,
      "verdade": 2164,
      "ĠVamos": 2165,
      "ĠPadre": 2166,
      "sesse": 2167,
      "Ġlongo": 2168,
      "Ġsorriso": 2169,
      "Ġrindo": 2170,
      "ĠÃºnico": 2171,
      "Ġbonita": 2172,
      "As": 2173,
      "Se": 2174,
      "ron": 2175,
      "camente": 2176,
      "Ġbor": 2177,
      "logo": 2178,
      "ĠDo": 2179,
      "ĠDei": 2180,
      "Ġambi": 2181,
      "ĠesperanÃ§as": 2182,
      "Ã¢ncias": 2183,
      "fÃŃcil": 2184,
      "Ġexclamou": 2185,
      "AS": 2186,
      "iva": 2187,
      "istiu": 2188,
      "ĠvÃ£o": 2189,
      "Ġescri": 2190,
      "Ġresol": 2191,
      "Ġnota": 2192,
      "Ġdiver": 2193,
      "mado": 2194,
      "Ġdescon": 2195,
      "Ġviver": 2196,
      "ĠMrs": 2197,
      "ĠseminÃ¡rio": 2198,
      "bios": 2199,
      "baixo": 2200,
      "Ġtern": 2201,
      "Ġaber": 2202,
      "istÃªncia": 2203,
      "ĠimpressÃ£o": 2204,
      "Ġacabava": 2205,
      "enedita": 2206,
      "Ġdestino": 2207,
      "Ġclaro": 2208,
      "Ã³sito": 2209,
      "ES": 2210,
      "cal": 2211,
      "Ġpes": 2212,
      "Ġcul": 2213,
      "sera": 2214,
      "Ġnum": 2215,
      "Ġcoch": 2216,
      "lhou": 2217,
      "Ġseme": 2218,
      "Ġsecre": 2219,
      "leta": 2220,
      "lores": 2221,
      "randa": 2222,
      "Ġterc": 2223,
      "Ġpensou": 2224,
      "Ġnela": 2225,
      "Ġpude": 2226,
      "Ġtorna": 2227,
      "Ġergueu": 2228,
      "Ġmil": 2229,
      "Ġindifere": 2230,
      "ĠProcÃ³pio": 2231,
      "inete": 2232,
      "ĠintenÃ§Ã£o": 2233,
      "Ġcla": 2234,
      "ĠmÃº": 2235,
      "Ġdedos": 2236,
      "quelas": 2237,
      "outro": 2238,
      "lamen": 2239,
      "Ġesper": 2240,
      "imou": 2241,
      "ÃŃamos": 2242,
      "Ġbai": 2243,
      "til": 2244,
      "Ġpegou": 2245,
      "Ġsur": 2246,
      "ĠserÃ¡": 2247,
      "ĠprÃ³": 2248,
      "ĠIs": 2249,
      "ÃŃssim": 2250,
      "ĠlembranÃ§a": 2251,
      "ĠCamargo": 2252,
      "ĠdiferenÃ§a": 2253,
      "Ġsangue": 2254,
      "Ġternura": 2255,
      "Ao": 2256,
      "IaiÃ¡": 2257,
      "Um": 2258,
      "il": 2259,
      "nem": 2260,
      "Ãĥ": 2261,
      "ĠpÃºb": 2262,
      "Ġdemais": 2263,
      "Ġneste": 2264,
      "isto": 2265,
      "ĠfÃ¡": 2266,
      "lhi": 2267,
      "lemb": 2268,
      "Ġrealidade": 2269,
      "eiras": 2270,
      "lio": 2271,
      "liz": 2272,
      "ticas": 2273,
      "Ġnaquele": 2274,
      "Ãªme": 2275,
      "Ġconclu": 2276,
      "Ġmau": 2277,
      "vimento": 2278,
      "ĠMar": 2279,
      "Ġperto": 2280,
      "Ġolhava": 2281,
      "Ġhon": 2282,
      "Ġiria": 2283,
      "Ġabra": 2284,
      "enhuma": 2285,
      "Ġinterro": 2286,
      "ĠNada": 2287,
      "ĠimpossÃŃvel": 2288,
      "lamengo": 2289,
      "inter": 2290,
      "Ġdinheiro": 2291,
      "ĠofÃŃcio": 2292,
      "Ġfer": 2293,
      "ribu": 2294,
      "sava": 2295,
      "ĠNunca": 2296,
      "Ġconcor": 2297,
      "Ġdire": 2298,
      "tur": 2299,
      "ĠDes": 2300,
      "Ġlevou": 2301,
      "Ġtempos": 2302,
      "Ġtraz": 2303,
      "ĠIn": 2304,
      "ĠBenedita": 2305,
      "Ġvisto": 2306,
      "Ġvisitas": 2307,
      "Ġrepli": 2308,
      "Ġpoderia": 2309,
      "Ġigual": 2310,
      "ĠnegÃ³cio": 2311,
      "gno": 2312,
      "tÃ¢ncias": 2313,
      "xto": 2314,
      "ĠcÃ©": 2315,
      "Ġnesse": 2316,
      "lheres": 2317,
      "teve": 2318,
      "lon": 2319,
      "Ġempre": 2320,
      "Ġlou": 2321,
      "ĠlÃŃn": 2322,
      "Ġrir": 2323,
      "ĠbraÃ§o": 2324,
      "Ġguerra": 2325,
      "fal": 2326,
      "jos": 2327,
      "ob": 2328,
      "Ġpia": 2329,
      "ĠmamÃ£e": 2330,
      "isso": 2331,
      "Ġflores": 2332,
      "Ġalto": 2333,
      "ĠdifÃŃcil": 2334,
      "Ġdescob": 2335,
      "ĠOra": 2336,
      "Ġservi": 2337,
      "Ġarte": 2338,
      "Ġmurmu": 2339,
      "Ġpergunta": 2340,
      "gosto": 2341,
      "Ġinteressa": 2342,
      "Ġautor": 2343,
      "ventura": 2344,
      "gasse": 2345,
      "ol": 2346,
      "Ġcres": 2347,
      "Ġdera": 2348,
      "depois": 2349,
      "Ġpais": 2350,
      "aneiro": 2351,
      "Ġdado": 2352,
      "lix": 2353,
      "ĠDr": 2354,
      "Ġil": 2355,
      "Ġlevar": 2356,
      "Ġsono": 2357,
      "Ġparecer": 2358,
      "Ġfecha": 2359,
      "Ġtristeza": 2360,
      "Ġexemplo": 2361,
      "binete": 2362,
      "jar": 2363,
      "vendo": 2364,
      "Ġpior": 2365,
      "Ġdeli": 2366,
      "Ġtendo": 2367,
      "dendo": 2368,
      "Ġessas": 2369,
      "Ġemp": 2370,
      "Ġgen": 2371,
      "ĠCX": 2372,
      "Ġfilos": 2373,
      "Ġponta": 2374,
      "Ġpelos": 2375,
      "ĠMe": 2376,
      "ĠMeu": 2377,
      "osamente": 2378,
      "Ġbasta": 2379,
      "Ġtroca": 2380,
      "alguma": 2381,
      "Ġdeveras": 2382,
      "ĠimaginaÃ§Ã£o": 2383,
      "ÃĥO": 2384,
      "IV": 2385,
      "Os": 2386,
      "lis": 2387,
      "nar": 2388,
      "Ġpros": 2389,
      "istro": 2390,
      "estava": 2391,
      "Ġvem": 2392,
      "tamb": 2393,
      "rido": 2394,
      "cada": 2395,
      "Ġbran": 2396,
      "Ġbrin": 2397,
      "Ġconfi": 2398,
      "ĠPlÃ¡": 2399,
      "andou": 2400,
      "lhado": 2401,
      "casse": 2402,
      "sur": 2403,
      "Ġestado": 2404,
      "Ġesperava": 2405,
      "Ġdesen": 2406,
      "Ġcompanh": 2407,
      "qÃ¼e": 2408,
      "Ġjanelas": 2409,
      "Ġescra": 2410,
      "Ġretrato": 2411,
      "pecto": 2412,
      "LuÃŃs": 2413,
      "acho": 2414,
      "uso": 2415,
      "zas": 2416,
      "ĠaÃ§Ã£o": 2417,
      "Ġobede": 2418,
      "Ġseis": 2419,
      "enho": 2420,
      "mara": 2421,
      "parar": 2422,
      "Ġsacri": 2423,
      "Ġvieram": 2424,
      "unda": 2425,
      "ntamente": 2426,
      "Ġolhando": 2427,
      "vers": 2428,
      "tÃ¡rio": 2429,
      "ĠJaneiro": 2430,
      "nsi": 2431,
      "Ġprefer": 2432,
      "ĠLalau": 2433,
      "sua": 2434,
      "ĠBem": 2435,
      "java": 2436,
      "Ġpossu": 2437,
      "dura": 2438,
      "Ġvoltar": 2439,
      "ĠEuropa": 2440,
      "Ġpareciam": 2441,
      "ĠrÃ©": 2442,
      "Ġdefu": 2443,
      "Ġpresi": 2444,
      "................................": 2445,
      "Ġtrouxe": 2446,
      "Ca": 2447,
      "Eu": 2448,
      "RA": 2449,
      "plica": 2450,
      "Ġuni": 2451,
      "Ġsegre": 2452,
      "Ã©lix": 2453,
      "ÃŃdo": 2454,
      "come": 2455,
      "Ġmelan": 2456,
      "Ġconso": 2457,
      "Ġconsi": 2458,
      "turas": 2459,
      "Ġviva": 2460,
      "Ġpedi": 2461,
      "ĠTi": 2462,
      "Ġenfer": 2463,
      "ĠfazÃª": 2464,
      "ĠGlÃ³ria": 2465,
      "Ġsentido": 2466,
      "Ġmaneira": 2467,
      "Ġestima": 2468,
      "lÃ¡udia": 2469,
      "Ġentender": 2470,
      "Ġpensava": 2471,
      "Ġfrase": 2472,
      "Ġanterior": 2473,
      "tambÃ©m": 2474,
      "rima": 2475,
      "tim": 2476,
      "Ġdevo": 2477,
      "Ġfres": 2478,
      "deix": 2479,
      "Ġdom": 2480,
      "emais": 2481,
      "Ġreli": 2482,
      "Ġbene": 2483,
      "Ġembar": 2484,
      "Ġinc": 2485,
      "Ġpeda": 2486,
      "Ġleve": 2487,
      "Ġsemanas": 2488,
      "Ġandar": 2489,
      "zade": 2490,
      "ĠIa": 2491,
      "Ġentretanto": 2492,
      "Ġespera": 2493,
      "itaÃ§Ã£o": 2494,
      "Ġconfir": 2495,
      "ĠchapÃ©": 2496,
      "greja": 2497,
      "Ġordem": 2498,
      "trÃ³": 2499,
      "ĠexplicaÃ§Ã£o": 2500,
      "curso": 2501,
      "NT": 2502,
      "dÃª": 2503,
      "ges": 2504,
      "ilia": 2505,
      "lpe": 2506,
      "nia": 2507,
      "Ãł": 2508,
      "Ġria": 2509,
      "Ġame": 2510,
      "Ġcem": 2511,
      "Ġmei": 2512,
      "Ġnuma": 2513,
      "uman": 2514,
      "dando": 2515,
      "deus": 2516,
      "Ġdoce": 2517,
      "ĠEx": 2518,
      "ciente": 2519,
      "ĠAnda": 2520,
      "Ġmomento": 2521,
      "Ġvelhos": 2522,
      "Ġperce": 2523,
      "iores": 2524,
      "tÃ¡culo": 2525,
      "ĠJo": 2526,
      "ĠFlamengo": 2527,
      "ĠBatista": 2528,
      "porque": 2529,
      "Ġadvo": 2530,
      "turalmente": 2531,
      "Ġescreveu": 2532,
      "fogo": 2533,
      "ĠÃŃnt": 2534,
      "Ġcavalo": 2535,
      "Ġadivinh": 2536,
      "Ġfinalmente": 2537,
      "dindo": 2538,
      "nal": 2539,
      "ula": 2540,
      "raia": 2541,
      "cioso": 2542,
      "cimentos": 2543,
      "ĠAh": 2544,
      "Ġnomes": 2545,
      "podia": 2546,
      "Ġgas": 2547,
      "cula": 2548,
      "Ġcontos": 2549,
      "Ġfazen": 2550,
      "Ġteatro": 2551,
      "Ġmorreu": 2552,
      "Ġliber": 2553,
      "Ġesperar": 2554,
      "rÃ¡pi": 2555,
      "Ġbaixo": 2556,
      "Ġpura": 2557,
      "Ġpensamento": 2558,
      "ĠOuvi": 2559,
      "ĠpÃ¡gina": 2560,
      "Ġandando": 2561,
      "Ġcuriosidade": 2562,
      "Ġgoverno": 2563,
      "ĠlÃŃngua": 2564,
      "jor": 2565,
      "Ġaz": 2566,
      "Ġante": 2567,
      "queza": 2568,
      "tafogo": 2569,
      "Ġespos": 2570,
      "Ġdoente": 2571,
      "Ġrem": 2572,
      "eitos": 2573,
      "tivos": 2574,
      "ĠgÃªme": 2575,
      "ĠClÃ¡udia": 2576,
      "ĠDi": 2577,
      "tran": 2578,
      "unes": 2579,
      "Ġsenhoras": 2580,
      "conse": 2581,
      "Ġfortuna": 2582,
      "Ġfossem": 2583,
      "sica": 2584,
      "Ġcriado": 2585,
      "Ġtua": 2586,
      "ĠnotÃŃcias": 2587,
      "Ġgabinete": 2588,
      "Ġdireito": 2589,
      "Ġarrepen": 2590,
      "ĠconfianÃ§a": 2591,
      "ĠprÃ³x": 2592,
      "mÃ¡": 2593,
      "Ġaju": 2594,
      "rais": 2595,
      "estas": 2596,
      "Ġsendo": 2597,
      "len": 2598,
      "Ġestes": 2599,
      "Ġreg": 2600,
      "ĠNe": 2601,
      "Ġalcan": 2602,
      "Ġcapi": 2603,
      "patia": 2604,
      "Ġviesse": 2605,
      "ĠOlhe": 2606,
      "ramos": 2607,
      "Ġperdo": 2608,
      "inava": 2609,
      "Ġfazendo": 2610,
      "Ġprimeiras": 2611,
      "boa": 2612,
      "eral": 2613,
      "Ġcriatura": 2614,
      "messa": 2615,
      "Ġjuntos": 2616,
      "ĠpropÃ³sito": 2617,
      "Estela": 2618,
      "Ġbreve": 2619,
      "Ġmostrou": 2620,
      "trÃ³po": 2621,
      "VII": 2622,
      "sor": 2623,
      "vÃª": 2624,
      "Ġpaz": 2625,
      "Ġremor": 2626,
      "Ġreconhe": 2627,
      "coisa": 2628,
      "Ġbele": 2629,
      "ĠAinda": 2630,
      "tual": 2631,
      "ĠDE": 2632,
      "Ġfiquei": 2633,
      "Ġfolha": 2634,
      "Ġhi": 2635,
      "conf": 2636,
      "Ġpensar": 2637,
      "Ġmulheres": 2638,
      "Ġcerteza": 2639,
      "mesmo": 2640,
      "Ġrepu": 2641,
      "Ġlevantou": 2642,
      "ĠpÃ´s": 2643,
      "tÃ©rio": 2644,
      "Ġpequeno": 2645,
      "Ġrecus": 2646,
      "ĠrelaÃ§Ãµes": 2647,
      "Ġsombra": 2648,
      "IX": 2649,
      "VIII": 2650,
      "pesso": 2651,
      "Ġz": 2652,
      "Ġrou": 2653,
      "ĠrÃ¡pi": 2654,
      "Ġeme": 2655,
      "ĠcÃ³": 2656,
      "Ġofere": 2657,
      "isas": 2658,
      "Ġcontava": 2659,
      "menos": 2660,
      "Ġreti": 2661,
      "Ġouv": 2662,
      "gante": 2663,
      "Ġpedido": 2664,
      "ĠQuanto": 2665,
      "gente": 2666,
      "Ġdiabo": 2667,
      "ĠlÃ¡bios": 2668,
      "Ġchegar": 2669,
      "Ġmana": 2670,
      "pÃ©is": 2671,
      "Ġvirtu": 2672,
      "Ġorde": 2673,
      "ĠCarlos": 2674,
      "ĠroÃ§a": 2675,
      "Ġsincer": 2676,
      "Ġsincera": 2677,
      "Ġmostrar": 2678,
      "Ġconserva": 2679,
      "ĠresoluÃ§Ã£o": 2680,
      "Ġombros": 2681,
      "drasta": 2682,
      "ÃŃssimo": 2683,
      "trÃ³polis": 2684,
      "!\"": 2685,
      "edo": 2686,
      "itar": 2687,
      "vei": 2688,
      "zinha": 2689,
      "ĠâĢľ": 2690,
      "Ġag": 2691,
      "ren": 2692,
      "ĠnÃºm": 2693,
      "Ġouro": 2694,
      "ĠAqui": 2695,
      "ceram": 2696,
      "Ġcap": 2697,
      "Ġpensando": 2698,
      "Ġquanto": 2699,
      "Ġvaga": 2700,
      "Ġvanta": 2701,
      "Ġinterior": 2702,
      "Ġcuri": 2703,
      "Ġrepar": 2704,
      "Ġambas": 2705,
      "Ġamava": 2706,
      "Ġapareceu": 2707,
      "Ġjoe": 2708,
      "ventu": 2709,
      "Ġculpa": 2710,
      "Ġpiano": 2711,
      "Con": 2712,
      "RI": 2713,
      "aca": 2714,
      "agem": 2715,
      "fÃ©": 2716,
      "osas": 2717,
      "Ġdemo": 2718,
      "tam": 2719,
      "lente": 2720,
      "ĠpapÃ©is": 2721,
      "pela": 2722,
      "Ġcanto": 2723,
      "moÃ§a": 2724,
      "ĠDemais": 2725,
      "Ġpelas": 2726,
      "Ġacho": 2727,
      "Ġsupor": 2728,
      "ĠTerra": 2729,
      "ndou": 2730,
      "Ġpromessa": 2731,
      "bado": 2732,
      "Ġapos": 2733,
      "Ġcontou": 2734,
      "Ġverdadeira": 2735,
      "Ġesquecer": 2736,
      "Ġexplicar": 2737,
      "Ġsuspeita": 2738,
      "ĠdÃºvida": 2739,
      "Ent": 2740,
      "OS": 2741,
      "Sa": 2742,
      "dra": 2743,
      "gÃ¡": 2744,
      "itÃ©rio": 2745,
      "ocupa": 2746,
      "osme": 2747,
      "Ġdecla": 2748,
      "ntu": 2749,
      "Ġpausa": 2750,
      "anho": 2751,
      "Ġdama": 2752,
      "alo": 2753,
      "cilia": 2754,
      "lido": 2755,
      "homem": 2756,
      "Ġdissim": 2757,
      "gaÃ§Ã£o": 2758,
      "Ġpernas": 2759,
      "ĠVou": 2760,
      "inado": 2761,
      "Ġabri": 2762,
      "reiro": 2763,
      "Ġquais": 2764,
      "onha": 2765,
      "Ġinteiramente": 2766,
      "Ġamizade": 2767,
      "Ġchamar": 2768,
      "Ġprecisa": 2769,
      "Ġprincipal": 2770,
      "ĠBotafogo": 2771,
      "Ġreligi": 2772,
      "\",": 2773,
      "Cam": 2774,
      "cÃªncia": 2775,
      "pul": 2776,
      "trim": 2777,
      "zinho": 2778,
      "Ġalhe": 2779,
      "Ġagu": 2780,
      "Ġmandou": 2781,
      "ĠseparaÃ§Ã£o": 2782,
      "Ġvul": 2783,
      "tados": 2784,
      "Ġdona": 2785,
      "telo": 2786,
      "ĠÃ¢": 2787,
      "Ġconven": 2788,
      "Ġge": 2789,
      "ĠVÃ¡": 2790,
      "ĠFa": 2791,
      "ĠFÃ©lix": 2792,
      "prese": 2793,
      "Ġnoites": 2794,
      "perador": 2795,
      "Ġrum": 2796,
      "Ġquisesse": 2797,
      "entre": 2798,
      "Ġsentir": 2799,
      "Ġimag": 2800,
      "Ġfizera": 2801,
      "Ġpasseio": 2802,
      "ĠcircunstÃ¢ncias": 2803,
      "ĠtÃŃtulo": 2804,
      "Ġclara": 2805,
      "Fi": 2806,
      "Uma": 2807,
      "sima": 2808,
      "Ġdando": 2809,
      "Ġav": 2810,
      "qua": 2811,
      "ntia": 2812,
      "ntura": 2813,
      "renta": 2814,
      "Ġtam": 2815,
      "Ġsete": 2816,
      "lera": 2817,
      "Ġremo": 2818,
      "eiros": 2819,
      "Ġaspecto": 2820,
      "tiÃ§a": 2821,
      "tidÃ£o": 2822,
      "ĠChe": 2823,
      "Ġcalado": 2824,
      "Ġdessas": 2825,
      "Ġenter": 2826,
      "Ġsubi": 2827,
      "ĠTra": 2828,
      "inaÃ§Ã£o": 2829,
      "Ġatribu": 2830,
      "Ġsido": 2831,
      "ĠCont": 2832,
      "creto": 2833,
      "Ġdesembargador": 2834,
      "Ġqualidades": 2835,
      "Ġfugir": 2836,
      "Ġlevava": 2837,
      "Ġimpe": 2838,
      "ĠpÃ´r": 2839,
      "Ġorgu": 2840,
      "entinho": 2841,
      "Ġfizesse": 2842,
      "Ġobscu": 2843,
      "Ġexplicou": 2844,
      "ciedade": 2845,
      "Ġpequena": 2846,
      "Ġapertou": 2847,
      "passa": 2848,
      "Ġjustamente": 2849,
      "Ġsatisfa": 2850,
      "Ġsuperior": 2851,
      "Ġcocheiro": 2852,
      "ĠmÃºsica": 2853,
      "Ġbaile": 2854,
      "Ġreplicou": 2855,
      "besse": 2856,
      "gÃ¼": 2857,
      "sÃŃ": 2858,
      "ĠXX": 2859,
      "Ġapa": 2860,
      "Ġcri": 2861,
      "Ġoito": 2862,
      "rebro": 2863,
      "Ġquerer": 2864,
      "oria": 2865,
      "dados": 2866,
      "ĠsÃº": 2867,
      "ĠestÃ£o": 2868,
      "alguns": 2869,
      "ĠmatÃ©": 2870,
      "Ġdiscurso": 2871,
      "Ġsacu": 2872,
      "Ġvivia": 2873,
      "ĠEstou": 2874,
      "lesa": 2875,
      "Ġteu": 2876,
      "Ġdeixei": 2877,
      "Ġdeixava": 2878,
      "pero": 2879,
      "Ġesteve": 2880,
      "Ġbatia": 2881,
      "Ġresponder": 2882,
      "Ġreceber": 2883,
      "ĠSab": 2884,
      "Ġestivesse": 2885,
      "Ġsobrinho": 2886,
      "ĠsensaÃ§Ã£o": 2887,
      "lÃ©gio": 2888,
      "ĠPlÃ¡cida": 2889,
      "ĠchapÃ©u": 2890,
      "Ġadvogado": 2891,
      "af": 2892,
      "aim": 2893,
      "manhÃ£": 2894,
      "ole": 2895,
      "Ġcen": 2896,
      "tara": 2897,
      "Ġesfor": 2898,
      "Ġpal": 2899,
      "ĠrelÃ³": 2900,
      "Ã§ada": 2901,
      "ĠCu": 2902,
      "Ġdistra": 2903,
      "Ġdescer": 2904,
      "Ġindis": 2905,
      "Ġdissesse": 2906,
      "ĠEstava": 2907,
      "Ġpreto": 2908,
      "Ġatre": 2909,
      "ĠsÃ³s": 2910,
      "Ġmenor": 2911,
      "ÃŃssima": 2912,
      "Ġobser": 2913,
      "pergu": 2914,
      "Ġsegun": 2915,
      "Ã¢mara": 2916,
      "Ġmanda": 2917,
      "pareceu": 2918,
      "Ġcomple": 2919,
      "Ġgostava": 2920,
      "Ġgestos": 2921,
      "pensa": 2922,
      "Ġficaram": 2923,
      "ĠÃºltimos": 2924,
      "Ġespanto": 2925,
      "Ġobstante": 2926,
      "Ġescolha": 2927,
      "ĠAntunes": 2928,
      "prÃ³p": 2929,
      "Ġvestido": 2930,
      "pouco": 2931,
      "ĠEnfim": 2932,
      "Ġtrinta": 2933,
      "Ġestreme": 2934,
      "Ġdormir": 2935,
      "Ġprovavelmente": 2936,
      "ĠausÃªncia": 2937,
      "ĠJoÃ£o": 2938,
      "Ġzan": 2939,
      "aimundo": 2940,
      "En": 2941,
      "bus": 2942,
      "dÃŃ": 2943,
      "gam": 2944,
      "rÃŃ": 2945,
      "tendo": 2946,
      "Ġun": 2947,
      "Ġdim": 2948,
      "Ġevi": 2949,
      "rendo": 2950,
      "Ġcole": 2951,
      "Ġcoron": 2952,
      "Ġdono": 2953,
      "ano": 2954,
      "Ġmere": 2955,
      "gonha": 2956,
      "Ġnove": 2957,
      "ĠNos": 2958,
      "Ġmadrasta": 2959,
      "ĠCorte": 2960,
      "Ġdesceu": 2961,
      "Ġlinhas": 2962,
      "nais": 2963,
      "ĠTem": 2964,
      "Ġandava": 2965,
      "Ġparou": 2966,
      "dua": 2967,
      "Ġvaranda": 2968,
      "Ġaquilo": 2969,
      "ĠPodia": 2970,
      "ĠPetrÃ³polis": 2971,
      "zequi": 2972,
      "companha": 2973,
      "Ġvinham": 2974,
      "ĠVol": 2975,
      "Ġantigo": 2976,
      "Ġantiga": 2977,
      "ĠpresenÃ§a": 2978,
      "âĢĿ.": 2979,
      "Ġcabocla": 2980,
      "tÃ³rio": 2981,
      "Ġimporta": 2982,
      "ĠDeix": 2983,
      "Ġsemelhante": 2984,
      "Ġesposa": 2985,
      "Ġbeleza": 2986,
      "Ġcoronel": 2987,
      "Pe": 2988,
      "Pro": 2989,
      "Re": 2990,
      "caria": 2991,
      "ios": 2992,
      "lou": 2993,
      "lÃ©s": 2994,
      "tima": 2995,
      "ĠQ": 2996,
      "Ġras": 2997,
      "Ġdaria": 2998,
      "Ġnessa": 2999,
      "Ġtrem": 3000,
      "Ġtirou": 3001,
      "Ġescon": 3002,
      "imidade": 3003,
      "cova": 3004,
      "Ġasse": 3005,
      "Ġnamo": 3006,
      "Ġcasal": 3007,
      "ĠMinha": 3008,
      "Ġperdeu": 3009,
      "ristia": 3010,
      "Ġpoucas": 3011,
      "ĠHuman": 3012,
      "char": 3013,
      "chor": 3014,
      "essou": 3015,
      "Ġperguntar": 3016,
      "Ġperguntei": 3017,
      "Ġpodem": 3018,
      "Ġcuja": 3019,
      "Ġfamilia": 3020,
      "Ġesquer": 3021,
      "Ġrapazes": 3022,
      "Ġaceitar": 3023,
      "Ġministro": 3024,
      "Natividade": 3025,
      "Ġescada": 3026,
      "Ġdiria": 3027,
      "Ġinglesa": 3028,
      "Ġmurmurou": 3029,
      "Capitu": 3030,
      "ĠnÃºmero": 3031,
      "ĠrelÃ³gio": 3032,
      "zequiel": 3033,
      "Tal": 3034,
      "nÃ§as": 3035,
      "ror": 3036,
      "Ġelo": 3037,
      "Ġedu": 3038,
      "Ġpeito": 3039,
      "Ġdeses": 3040,
      "ĠfÃ©": 3041,
      "meu": 3042,
      "Ġesses": 3043,
      "todo": 3044,
      "Ġrealmente": 3045,
      "lheu": 3046,
      "cabe": 3047,
      "ĠEram": 3048,
      "ĠcaÃŃ": 3049,
      "ĠcafÃ©": 3050,
      "riam": 3051,
      "Ġsac": 3052,
      "Ġdescul": 3053,
      "Ġlargo": 3054,
      "ĠpeÃ§o": 3055,
      "ĠmoÃ§as": 3056,
      "Ġmovimento": 3057,
      "Ġfale": 3058,
      "Ġacen": 3059,
      "Ġmesmas": 3060,
      "Ġboas": 3061,
      "ĠHo": 3062,
      "ĠBentinho": 3063,
      "Ġquarenta": 3064,
      "Ġnoivo": 3065,
      "Ġlua": 3066,
      "Ġpassava": 3067,
      "Ġfalando": 3068,
      "Ġsobretudo": 3069,
      "Ġmister": 3070,
      "ĠConhe": 3071,
      "Ġestilo": 3072,
      "Ġvalia": 3073,
      "Ġcostas": 3074,
      "ressÃµes": 3075,
      "palavras": 3076,
      "Ġconside": 3077,
      "ĠcemitÃ©rio": 3078,
      "ĠremÃ©dio": 3079,
      "ĠgÃªmeos": 3080,
      "ĠCubas": 3081,
      "IA": 3082,
      "Ou": 3083,
      "jou": 3084,
      "mÃ£o": 3085,
      "ute": 3086,
      "Ġafi": 3087,
      "Ġajus": 3088,
      "Ġcou": 3089,
      "Ġsentou": 3090,
      "mei": 3091,
      "dese": 3092,
      "Ã¡rios": 3093,
      "Ġdavam": 3094,
      "cidos": 3095,
      "Ġmeta": 3096,
      "cente": 3097,
      "riamente": 3098,
      "ĠdistÃ¢ncia": 3099,
      "Ġindo": 3100,
      "Ġperde": 3101,
      "Ġsonhos": 3102,
      "lhava": 3103,
      "Ġrestitu": 3104,
      "Ãºs": 3105,
      "Ġirri": 3106,
      "Ġnossas": 3107,
      "Ġafinal": 3108,
      "istir": 3109,
      "Ġlembrar": 3110,
      "pÃ©tua": 3111,
      "Ġadver": 3112,
      "criÃ§Ã£o": 3113,
      "Ġdefini": 3114,
      "Ġergu": 3115,
      "Ġbeijo": 3116,
      "voro": 3117,
      "ĠÃ¡gua": 3118,
      "Ġcorredor": 3119,
      "ĠJustina": 3120,
      "ĠEntretanto": 3121,
      "Ġmelanco": 3122,
      "Ġazul": 3123,
      "Sofia": 3124,
      "ad": 3125,
      "gro": 3126,
      "jei": 3127,
      "mpe": 3128,
      "pia": 3129,
      "pis": 3130,
      "pres": 3131,
      "xu": 3132,
      "Ġata": 3133,
      "quis": 3134,
      "Ġdecerto": 3135,
      "inos": 3136,
      "Ġsequer": 3137,
      "Ġcomer": 3138,
      "coraÃ§Ã£o": 3139,
      "Ġalta": 3140,
      "Ġgros": 3141,
      "ĠCosme": 3142,
      "ĠfaÃ§a": 3143,
      "Ġexi": 3144,
      "Ġextra": 3145,
      "Ġsolu": 3146,
      "Ġmesmos": 3147,
      "Ġanima": 3148,
      "ĠLÃ¡": 3149,
      "Ġdeixe": 3150,
      "Ġtanta": 3151,
      "Ġrepeti": 3152,
      "Ġcalor": 3153,
      "Ġsubs": 3154,
      "Ġaprox": 3155,
      "Ġbanco": 3156,
      "Ġroman": 3157,
      "Ġprincipalmente": 3158,
      "ĠLobo": 3159,
      "Ġamores": 3160,
      "ĠfÃ¡cil": 3161,
      "Ġsegredo": 3162,
      "ĠNeves": 3163,
      "amente": 3164,
      "bres": 3165,
      "clar": 3166,
      "cÃªs": 3167,
      "etra": 3168,
      "foi": 3169,
      "ginas": 3170,
      "mÃ£e": 3171,
      "nge": 3172,
      "pÃ³": 3173,
      "raÃ§Ãµes": 3174,
      "Ġori": 3175,
      "Ġcolo": 3176,
      "ĠtÃªm": 3177,
      "Ġfrio": 3178,
      "Ġsentar": 3179,
      "Ġdonde": 3180,
      "cober": 3181,
      "Ġben": 3182,
      "Ġdiv": 3183,
      "ĠPou": 3184,
      "Ġdesas": 3185,
      "Ġinqui": 3186,
      "Ġcasas": 3187,
      "Ġfato": 3188,
      "Ġexam": 3189,
      "Ġher": 3190,
      "tÃ¡ria": 3191,
      "Ġversos": 3192,
      "Ġanedo": 3193,
      "Ġaban": 3194,
      "ĠHa": 3195,
      "terno": 3196,
      "fetivamente": 3197,
      "duas": 3198,
      "Ġcerca": 3199,
      "enhum": 3200,
      "Ġouvido": 3201,
      "Ġgosta": 3202,
      "ĠÃºltimas": 3203,
      "Ġpraia": 3204,
      "Ġdefen": 3205,
      "venÃ§Ã£o": 3206,
      "Ġbastava": 3207,
      "Com": 3208,
      "ĠreflexÃµes": 3209,
      "Ġhumana": 3210,
      "Ġacordo": 3211,
      "Ġestendeu": 3212,
      "ĠcÃ©rebro": 3213,
      "Ġfazenda": 3214,
      "Tinha": 3215,
      "__": 3216,
      "ale": 3217,
      "tru": 3218,
      "Ãĩ": 3219,
      "Ġate": 3220,
      "Ġadiante": 3221,
      "raÃŃ": 3222,
      "ĠcÃ£o": 3223,
      "ques": 3224,
      "ĠfÃª": 3225,
      "ord": 3226,
      "Ġvendo": 3227,
      "ment": 3228,
      "Ġpapai": 3229,
      "anda": 3230,
      "Ã³rias": 3231,
      "ticos": 3232,
      "Ġnovas": 3233,
      "Ġnamora": 3234,
      "Ġalu": 3235,
      "Ġconce": 3236,
      "ĠSem": 3237,
      "Ġigreja": 3238,
      "Ġdissera": 3239,
      "noi": 3240,
      "Ġbons": 3241,
      "Ġfechou": 3242,
      "Ġcorri": 3243,
      "Ġcorreu": 3244,
      "chos": 3245,
      "Ġforma": 3246,
      "marido": 3247,
      "istia": 3248,
      "Ġconselho": 3249,
      "Ġsorte": 3250,
      "mesma": 3251,
      "zeram": 3252,
      "expli": 3253,
      "ĠAlgum": 3254,
      "Ġquisera": 3255,
      "Ġgolpe": 3256,
      "Ġbuscar": 3257,
      "ĠCamacho": 3258,
      "Ġaceitou": 3259,
      "Ġdefunto": 3260,
      "),": 3261,
      "?...": 3262,
      "DO": 3263,
      "bem": 3264,
      "dros": 3265,
      "fosse": 3266,
      "gor": 3267,
      "nou": 3268,
      "pÃ¡": 3269,
      "Ã£os": 3270,
      "Ġfun": 3271,
      "Ġfru": 3272,
      "Ġfeita": 3273,
      "Ġvim": 3274,
      "Ã¡vamos": 3275,
      "Ã¡dua": 3276,
      "vaÃ§Ã£o": 3277,
      "Ġasso": 3278,
      "Ġdiri": 3279,
      "ĠPen": 3280,
      "Ġvira": 3281,
      "ĠmolÃ©s": 3282,
      "Ġfalei": 3283,
      "Ġlen": 3284,
      "Ġsonho": 3285,
      "Ġsemana": 3286,
      "bido": 3287,
      "Ġcarreira": 3288,
      "ĠBar": 3289,
      "ĠhÃ¡bi": 3290,
      "Ġobserva": 3291,
      "Ġexpan": 3292,
      "Ġnega": 3293,
      "Ġafas": 3294,
      "Ġvoltando": 3295,
      "Ġpuro": 3296,
      "Ġchama": 3297,
      "Ġimpa": 3298,
      "tismo": 3299,
      "Ġconhecia": 3300,
      "Ġsubir": 3301,
      "Ġsuspei": 3302,
      "Como": 3303,
      "Ġcurta": 3304,
      "Ġigualmente": 3305,
      "Ġbonito": 3306,
      "Ġterceiro": 3307,
      "ĠpossuÃŃa": 3308,
      "ĠÃ¢n": 3309,
      "ĠmatÃ©ria": 3310,
      "TA": 3311,
      "Tudo": 3312,
      "daria": 3313,
      "ecu": 3314,
      "Ġlho": 3315,
      "quio": 3316,
      "ĠmistÃ©rio": 3317,
      "dores": 3318,
      "meno": 3319,
      "Ġespre": 3320,
      "guas": 3321,
      "Ã§ado": 3322,
      "Ġmajor": 3323,
      "ĠCÃ¢mara": 3324,
      "Ġpoeta": 3325,
      "dasse": 3326,
      "Ġencar": 3327,
      "ĠFe": 3328,
      "Ġsilen": 3329,
      "Ġparede": 3330,
      "conversa": 3331,
      "ĠforÃ§as": 3332,
      "ulso": 3333,
      "Ġnoiva": 3334,
      "corre": 3335,
      "Ġmaneiras": 3336,
      "parecia": 3337,
      "Ġluta": 3338,
      "ingular": 3339,
      "Ġcaminh": 3340,
      "Ġtornar": 3341,
      "Ġabaixo": 3342,
      "Ġcumprime": 3343,
      "Ġconfessou": 3344,
      "sentimento": 3345,
      "Ġatrav": 3346,
      "ĠLogo": 3347,
      "Ġderra": 3348,
      "ĠMarcela": 3349,
      "Ġorgulho": 3350,
      "Aires": 3351,
      "RE": 3352,
      "RO": 3353,
      "aram": 3354,
      "cÃ¡vel": 3355,
      "fÃ¡": 3356,
      "ica": 3357,
      "itou": 3358,
      "jas": 3359,
      "jam": 3360,
      "jeito": 3361,
      "mal": 3362,
      "ĠXXX": 3363,
      "Ġacompanha": 3364,
      "Ġon": 3365,
      "Ġvamos": 3366,
      "Ġcomum": 3367,
      "enÃ§a": 3368,
      "Ġreve": 3369,
      "Ġretor": 3370,
      "ĠEzequiel": 3371,
      "ĠÃĢ": 3372,
      "lida": 3373,
      "tivas": 3374,
      "ĠPos": 3375,
      "ĠDu": 3376,
      "Ġdist": 3377,
      "ĠSan": 3378,
      "ĠcomoÃ§Ã£o": 3379,
      "Ġsociedade": 3380,
      "lhada": 3381,
      "Ġenfa": 3382,
      "Ġengan": 3383,
      "Ãµe": 3384,
      "Ãºn": 3385,
      "Ġpreten": 3386,
      "ĠapÃ³s": 3387,
      "Ġanim": 3388,
      "ficar": 3389,
      "Ġoutrora": 3390,
      "reitas": 3391,
      "Ġmorre": 3392,
      "Ġlibe": 3393,
      "Ġchegava": 3394,
      "Ġcheguei": 3395,
      "Ġsabendo": 3396,
      "Ġchar": 3397,
      "Ġmandar": 3398,
      "fazer": 3399,
      "Ġrepro": 3400,
      "ĠciÃº": 3401,
      "ĠobsÃ©": 3402,
      "ĠXL": 3403,
      "Ġinflu": 3404,
      "Ġaprese": 3405,
      "Ġplano": 3406,
      "primeira": 3407,
      "Ġinveja": 3408,
      "Ġafirma": 3409,
      "Ġdespeito": 3410,
      "Ġacrescentou": 3411,
      "Ġjornais": 3412,
      "Ġsegundos": 3413,
      "MA": 3414,
      "agora": 3415,
      "bru": 3416,
      "grande": 3417,
      "Ãī": 3418,
      "Ġdepu": 3419,
      "Ġore": 3420,
      "inze": 3421,
      "esque": 3422,
      "Ġfen": 3423,
      "Ġfir": 3424,
      "Ã§ando": 3425,
      "media": 3426,
      "ĠsÃ©rio": 3427,
      "def": 3428,
      "Ã¡ter": 3429,
      "Ġrefer": 3430,
      "ĠAntes": 3431,
      "ĠDisse": 3432,
      "ĠSou": 3433,
      "Ġvejo": 3434,
      "Ġacanha": 3435,
      "diam": 3436,
      "Ġperigo": 3437,
      "Que": 3438,
      "vores": 3439,
      "ĠRaimundo": 3440,
      "Ġprojeto": 3441,
      "Ġpreocupa": 3442,
      "Ġbol": 3443,
      "ĠgraÃ§as": 3444,
      "ĠSeu": 3445,
      "Ġouvidos": 3446,
      "Ġcujo": 3447,
      "Ġrecente": 3448,
      "Ġsimpatia": 3449,
      "continu": 3450,
      "necess": 3451,
      "Ġbastante": 3452,
      "ĠpÃ¡ginas": 3453,
      "prin": 3454,
      "Ġconfessar": 3455,
      "Ġadivinha": 3456,
      "Ġrecorda": 3457,
      "Ġnariz": 3458,
      "Ġguarda": 3459,
      "Ġdomingo": 3460,
      "Ġacerca": 3461,
      "Ġdiminu": 3462,
      "chorro": 3463,
      "Ġesquerda": 3464,
      "Foi": 3465,
      "IS": 3466,
      "JÃ¡": 3467,
      "aÃ§Ã£o": 3468,
      "cria": 3469,
      "eto": 3470,
      "gal": 3471,
      "gÃŃ": 3472,
      "pÃ§Ã£o": 3473,
      "Ġus": 3474,
      "raz": 3475,
      "ĠmÃªs": 3476,
      "seus": 3477,
      "Ġdeva": 3478,
      "ĠcolÃ©gio": 3479,
      "Ġfronte": 3480,
      "Ã¡rias": 3481,
      "Ġalcova": 3482,
      "Ġcaute": 3483,
      "ĠSo": 3484,
      "ĠSenh": 3485,
      "gados": 3486,
      "Ġpermi": 3487,
      "bele": 3488,
      "volu": 3489,
      "ĠQuis": 3490,
      "Ġcontras": 3491,
      "ĠLXX": 3492,
      "ĠLXXX": 3493,
      "ĠcarÃ¡ter": 3494,
      "Ġarti": 3495,
      "chei": 3496,
      "Ġvisse": 3497,
      "Ġcheio": 3498,
      "siva": 3499,
      "faz": 3500,
      "Ġconfor": 3501,
      "ĠprÃ³prios": 3502,
      "ĠNaturalmente": 3503,
      "ĠSabe": 3504,
      "Ġviria": 3505,
      "Ġleito": 3506,
      "ĠespaÃ§o": 3507,
      "Ġescrito": 3508,
      "Ġrecusa": 3509,
      "algumas": 3510,
      "ĠDaÃŃ": 3511,
      "Ġliberdade": 3512,
      "Ġjoelhos": 3513,
      "Ġrumor": 3514,
      "Em": 3515,
      "TambÃ©m": 3516,
      "avam": 3517,
      "vinha": 3518,
      "Ġdan": 3519,
      "osco": 3520,
      "Ġderam": 3521,
      "Ġdemora": 3522,
      "assim": 3523,
      "Ġques": 3524,
      "aro": 3525,
      "Ġsepul": 3526,
      "mens": 3527,
      "Ġsinal": 3528,
      "ouve": 3529,
      "deiro": 3530,
      "lento": 3531,
      "Ġreal": 3532,
      "texto": 3533,
      "Ġmeteu": 3534,
      "Ġalmas": 3535,
      "dias": 3536,
      "Ġsai": 3537,
      "Ġfolhas": 3538,
      "Ġmodes": 3539,
      "ĠMamÃ£e": 3540,
      "Ġsuce": 3541,
      "ĠEsse": 3542,
      "Ġhor": 3543,
      "Ġens": 3544,
      "ĠvocaÃ§Ã£o": 3545,
      "nom": 3546,
      "ĠJu": 3547,
      "ĠLX": 3548,
      "Ġmenino": 3549,
      "Ġabrir": 3550,
      "feliz": 3551,
      "Ġcorrespo": 3552,
      "Ġmorto": 3553,
      "Ġhabi": 3554,
      "ĠconfissÃ£o": 3555,
      "nhas": 3556,
      "ĠXC": 3557,
      "vemos": 3558,
      "Ġsaudade": 3559,
      "Ġfelizes": 3560,
      "Ġrecome": 3561,
      "Ġfrente": 3562,
      "ĠCasa": 3563,
      "Ġdoutor": 3564,
      "Ġacompanhou": 3565,
      "ĠmudanÃ§a": 3566,
      "Ġletras": 3567,
      "ĠpedaÃ§o": 3568,
      "ĠsatisfaÃ§Ã£o": 3569,
      "ĠesforÃ§o": 3570,
      ".âĢĿ": 3571,
      "fre": 3572,
      "fam": 3573,
      "idÃ©": 3574,
      "tÃ³ria": 3575,
      "Ġansi": 3576,
      "resa": 3577,
      "istra": 3578,
      "inei": 3579,
      "Ġsege": 3580,
      "Ġvas": 3581,
      "melhor": 3582,
      "outros": 3583,
      "taram": 3584,
      "dela": 3585,
      "enha": 3586,
      "Ġrei": 3587,
      "coisas": 3588,
      "gui": 3589,
      "lidos": 3590,
      "licidade": 3591,
      "ponha": 3592,
      "ami": 3593,
      "Ġgeral": 3594,
      "Ġdiplo": 3595,
      "diz": 3596,
      "ciais": 3597,
      "Ġdisfar": 3598,
      "Ġviole": 3599,
      "Ġido": 3600,
      "Ġaceita": 3601,
      "ĠVer": 3602,
      "Ġapar": 3603,
      "Ġduvi": 3604,
      "Ġabsolu": 3605,
      "ĠIm": 3606,
      "Ġpensei": 3607,
      "ĠPare": 3608,
      "ĠposiÃ§Ã£o": 3609,
      "Ġsegui": 3610,
      "Ġbata": 3611,
      "Ġrespondia": 3612,
      "clus": 3613,
      "Ġficara": 3614,
      "Ġesqueceu": 3615,
      "Ġenteada": 3616,
      "Ġimagem": 3617,
      "ĠCampos": 3618,
      "gnidade": 3619,
      "lÃ³so": 3620,
      "cenÃ§a": 3621,
      "ĠnegÃ³cios": 3622,
      "Ġestrelas": 3623,
      "Ġintimidade": 3624,
      "ternidade": 3625,
      "ĠambiÃ§Ã£o": 3626,
      "qÃ¼enta": 3627,
      "Ġamea": 3628,
      "ĠAndaraÃŃ": 3629,
      "ĠlenÃ§o": 3630,
      "ĠfenÃ´": 3631,
      "feita": 3632,
      "mim": 3633,
      "pÃ´s": 3634,
      "Ġape": 3635,
      "Ġagre": 3636,
      "Ġpunha": 3637,
      "osos": 3638,
      "ĠmÃ©": 3639,
      "ĠmÃ³": 3640,
      "semos": 3641,
      "ĠdelÃŃ": 3642,
      "Ġnesta": 3643,
      "isboa": 3644,
      "armo": 3645,
      "esc": 3646,
      "Ġsingular": 3647,
      "Ã¡r": 3648,
      "Ġespi": 3649,
      "Ġcomb": 3650,
      "Ġret": 3651,
      "tera": 3652,
      "Ãªmu": 3653,
      "Ġparar": 3654,
      "ĠNh": 3655,
      "amo": 3656,
      "Ġdivi": 3657,
      "Ġdifi": 3658,
      "dizer": 3659,
      "modo": 3660,
      "Ġfizeram": 3661,
      "ĠsaÃŃa": 3662,
      "Ġdessa": 3663,
      "Ġmocidade": 3664,
      "ĠMor": 3665,
      "ĠMinas": 3666,
      "Ġtoa": 3667,
      "Ġvelhas": 3668,
      "Ġacre": 3669,
      "Ãºde": 3670,
      "ĠLem": 3671,
      "Ġpouca": 3672,
      "fico": 3673,
      "Ġabismo": 3674,
      "Ġtrata": 3675,
      "Ġobje": 3676,
      "Ġobjeto": 3677,
      "Ġtivera": 3678,
      "nica": 3679,
      "Ġconsenti": 3680,
      "Ġchamou": 3681,
      "ĠcomeÃ§ava": 3682,
      "Ġlivre": 3683,
      "Ġseriam": 3684,
      "Ġtur": 3685,
      "Ġtenha": 3686,
      "ÃŃncia": 3687,
      "ĠOutra": 3688,
      "ĠConf": 3689,
      "Ġrecuou": 3690,
      "Ġdiferente": 3691,
      "gnaÃ§Ã£o": 3692,
      "ĠadmiraÃ§Ã£o": 3693,
      "EstevÃ£o": 3694,
      "Ġtirar": 3695,
      "ĠindiferenÃ§a": 3696,
      "ĠIsto": 3697,
      "Ġfilosofia": 3698,
      "Ġremorso": 3699,
      "ĠcÃ³lera": 3700,
      "Ġcurioso": 3701,
      "Ġmelancolia": 3702,
      "noite": 3703,
      "ĠÃ¢nimo": 3704,
      "TO": 3705,
      "ac": 3706,
      "bio": 3707,
      "brou": 3708,
      "itava": 3709,
      "mando": 3710,
      "timo": 3711,
      "Ġatitu": 3712,
      "Ġdedi": 3713,
      "ern": 3714,
      "inco": 3715,
      "Ġfria": 3716,
      "Ġfesta": 3717,
      "umo": 3718,
      "Ġpadr": 3719,
      "ĠcomissÃ£o": 3720,
      "cam": 3721,
      "irÃ¡": 3722,
      "lias": 3723,
      "ĠNenhuma": 3724,
      "resso": 3725,
      "dimento": 3726,
      "Ġfitou": 3727,
      "garam": 3728,
      "Ġjul": 3729,
      "Ġlia": 3730,
      "Ġpecado": 3731,
      "Ġmole": 3732,
      "Ġdisseram": 3733,
      "Ġhei": 3734,
      "bera": 3735,
      "irar": 3736,
      "ĠterÃ¡": 3737,
      "ĠLisboa": 3738,
      "fiou": 3739,
      "Ġpenetra": 3740,
      "essas": 3741,
      "Ġinsistiu": 3742,
      "grade": 3743,
      "Ġvaidade": 3744,
      "dargÃ¼": 3745,
      "ĠtrÃªmu": 3746,
      "Ġchamava": 3747,
      "penas": 3748,
      "Ġruas": 3749,
      "cessos": 3750,
      "Ġvozes": 3751,
      "Ġvenha": 3752,
      "fora": 3753,
      "ĠcÃ¡l": 3754,
      "Ġpiedade": 3755,
      "Ġsuspirou": 3756,
      "Ġvalor": 3757,
      "Ġreceio": 3758,
      "ĠÃŃmpe": 3759,
      "ĠToda": 3760,
      "Ġafeto": 3761,
      "ĠsolidÃ£o": 3762,
      "Ġdesconfia": 3763,
      "pÃ³te": 3764,
      "Ġretorqui": 3765,
      "Ġcharu": 3766,
      "ĠquestÃ£o": 3767,
      "ER": 3768,
      "Flora": 3769,
      "Vi": 3770,
      "hÃ¡": 3771,
      "if": 3772,
      "igu": 3773,
      "iÃ§Ãµes": 3774,
      "tinho": 3775,
      "zes": 3776,
      "Ġuso": 3777,
      "Ġaqueles": 3778,
      "quia": 3779,
      "Ġdever": 3780,
      "iste": 3781,
      "Ġvar": 3782,
      "val": 3783,
      "todas": 3784,
      "ĠdoenÃ§a": 3785,
      "rie": 3786,
      "rico": 3787,
      "Ġreca": 3788,
      "Ġrejei": 3789,
      "ĠredargÃ¼": 3790,
      "tete": 3791,
      "Ġmelho": 3792,
      "ĠAtÃ©": 3793,
      "tio": 3794,
      "sobre": 3795,
      "Ġalvoro": 3796,
      "ĠgÃªn": 3797,
      "didas": 3798,
      "gara": 3799,
      "Ġelegante": 3800,
      "viu": 3801,
      "Ġvex": 3802,
      "Ġacima": 3803,
      "Ġsujeito": 3804,
      "ĠTu": 3805,
      "ĠQuer": 3806,
      "Ġfaziam": 3807,
      "Ġfaltava": 3808,
      "Ġgraciosa": 3809,
      "Ġbater": 3810,
      "Ġpux": 3811,
      "Ġsorrir": 3812,
      "Ġamigas": 3813,
      "Ġrepente": 3814,
      "exp": 3815,
      "contra": 3816,
      "Ġleitura": 3817,
      "bral": 3818,
      "culdade": 3819,
      "Ġdireita": 3820,
      "Ġdespediu": 3821,
      "Ġdespedir": 3822,
      "Ġnovamente": 3823,
      "Ġconvic": 3824,
      "alide": 3825,
      "lhice": 3826,
      "ĠsacrifÃŃcio": 3827,
      "ĠdomÃ©s": 3828,
      "ĠbenefÃŃcio": 3829,
      "Ġvulgar": 3830,
      "ĠeducaÃ§Ã£o": 3831,
      "ĠHavia": 3832,
      "Melchior": 3833,
      "TristÃ£o": 3834,
      "cui": 3835,
      "cina": 3836,
      "minu": 3837,
      "pla": 3838,
      "peito": 3839,
      "sÃ³": 3840,
      "tinas": 3841,
      "Ġlav": 3842,
      "Ġcr": 3843,
      "Ġdeclar": 3844,
      "Ġnisto": 3845,
      "Ġnisso": 3846,
      "umes": 3847,
      "ĠsÃ¡": 3848,
      "Ġsosse": 3849,
      "vado": 3850,
      "vava": 3851,
      "Ġcomuni": 3852,
      "cadas": 3853,
      "Ġmeter": 3854,
      "Ġasas": 3855,
      "amor": 3856,
      "ĠCer": 3857,
      "dios": 3858,
      "digo": 3859,
      "ĠPraia": 3860,
      "Ġfigu": 3861,
      "Ġinci": 3862,
      "ĠlÃª": 3863,
      "Ġpedindo": 3864,
      "ĠOnde": 3865,
      "ĠMo": 3866,
      "Ġtocar": 3867,
      "Ġtomar": 3868,
      "Ġtotal": 3869,
      "Ġacost": 3870,
      "Ġexter": 3871,
      "tÃ¡vel": 3872,
      "ĠQual": 3873,
      "Ġcontudo": 3874,
      "postas": 3875,
      "Ġtantos": 3876,
      "inhanÃ§a": 3877,
      "Ġchu": 3878,
      "Ġlembrava": 3879,
      "Ã¢ne": 3880,
      "Esta": 3881,
      "ĠcrianÃ§as": 3882,
      "Ġfalavam": 3883,
      "Ġrepou": 3884,
      "Ġimperador": 3885,
      "mulher": 3886,
      "Ġconhecer": 3887,
      "ĠjustiÃ§a": 3888,
      "ĠcircunstÃ¢ncia": 3889,
      "Ġsobrinha": 3890,
      "cÃ³r": 3891,
      "Ġexcelente": 3892,
      "ĠTeresa": 3893,
      "Ġtornava": 3894,
      "Ġesperou": 3895,
      "Ġescravo": 3896,
      "Ġcapital": 3897,
      "Ġouvindo": 3898,
      "Ġcapri": 3899,
      "ĠContudo": 3900,
      "Ġmisteri": 3901,
      "Ġextraord": 3902,
      "Ġnamorados": 3903,
      "ĠmolÃ©stia": 3904,
      "Che": 3905,
      "feira": 3906,
      "final": 3907,
      "gni": 3908,
      "iÃµes": 3909,
      "tria": 3910,
      "ĠaÃ§Ãµes": 3911,
      "Ġeterna": 3912,
      "Ġolhe": 3913,
      "rel": 3914,
      "ĠtrÃ¡s": 3915,
      "Ġfinal": 3916,
      "oronha": 3917,
      "Ġvindo": 3918,
      "ĠsÃ©ria": 3919,
      "dentes": 3920,
      "lex": 3921,
      "todos": 3922,
      "ÃŃda": 3923,
      "Ġnobre": 3924,
      "ĠNinguÃ©m": 3925,
      "ĠglÃ³ria": 3926,
      "ĠCXX": 3927,
      "ĠjÃ³": 3928,
      "Ġjura": 3929,
      "ntara": 3930,
      "ĠMan": 3931,
      "Ġtoma": 3932,
      "Ġtomou": 3933,
      "Ġperdido": 3934,
      "Ġexecu": 3935,
      "ĠEssa": 3936,
      "Ġeng": 3937,
      "Ġprote": 3938,
      "Ġdizem": 3939,
      "Ġpretexto": 3940,
      "Ġapla": 3941,
      "Ġsinto": 3942,
      "pito": 3943,
      "precis": 3944,
      "Ġtratava": 3945,
      "Ġtrazer": 3946,
      "Ġraro": 3947,
      "anhar": 3948,
      "ular": 3949,
      "Ġespecial": 3950,
      "Ġpessoal": 3951,
      "inguagem": 3952,
      "urante": 3953,
      "ĠrazÃµes": 3954,
      "Ġsoubesse": 3955,
      "Ġaparecer": 3956,
      "Ġcostuma": 3957,
      "Ġcuidados": 3958,
      "cilmente": 3959,
      "Ġsalvo": 3960,
      "ĠÃŃndo": 3961,
      "Ġtrecho": 3962,
      "Ġinclinou": 3963,
      "ĠVeja": 3964,
      "ĠJustamente": 3965,
      "rÃ©is": 3966,
      "ĠsensaÃ§Ãµes": 3967,
      "palavra": 3968,
      "Assim": 3969,
      "ĠIsso": 3970,
      "obs": 3971,
      "Ġgener": 3972,
      "Ġrecusou": 3973,
      "Ġvantagem": 3974,
      "ĠHumanitas": 3975,
      "Ġdesastre": 3976,
      "ĠÃĢs": 3977,
      "Ġfirme": 3978,
      "Ġbolso": 3979,
      "lÃ³sofo": 3980,
      "Ġdeclarou": 3981,
      "EM": 3982,
      "Po": 3983,
      "au": 3984,
      "bras": 3985,
      "has": 3986,
      "ico": 3987,
      "ivo": 3988,
      "ndas": 3989,
      "punha": 3990,
      "tc": 3991,
      "veio": 3992,
      "rados": 3993,
      "ossa": 3994,
      "Ġdeteve": 3995,
      "Ġqueix": 3996,
      "Ġquerendo": 3997,
      "Ġtes": 3998,
      "ĠtÃª": 3999
    },
    "merges": [
      [
        "Ġ",
        "d"
      ],
      [
        "Ġ",
        "a"
      ],
      [
        "Ġ",
        "e"
      ],
      [
        "r",
        "a"
      ],
      [
        "Ġ",
        "p"
      ],
      [
        "Ġ",
        "c"
      ],
      [
        "o",
        "s"
      ],
      [
        "q",
        "u"
      ],
      [
        "Ġ",
        "m"
      ],
      [
        "s",
        "e"
      ],
      [
        "Ġd",
        "e"
      ],
      [
        "a",
        "s"
      ],
      [
        "n",
        "t"
      ],
      [
        "Ã",
        "£"
      ],
      [
        "qu",
        "e"
      ],
      [
        "Ġ",
        "o"
      ],
      [
        "r",
        "e"
      ],
      [
        "Ã£",
        "o"
      ],
      [
        "Ġ",
        "n"
      ],
      [
        "i",
        "a"
      ],
      [
        "Ġ",
        "que"
      ],
      [
        "i",
        "s"
      ],
      [
        "d",
        "o"
      ],
      [
        "Ġc",
        "o"
      ],
      [
        "a",
        "r"
      ],
      [
        "Ġ",
        "t"
      ],
      [
        "e",
        "r"
      ],
      [
        "i",
        "n"
      ],
      [
        "e",
        "s"
      ],
      [
        "Ġ",
        "f"
      ],
      [
        "o",
        "r"
      ],
      [
        "u",
        "m"
      ],
      [
        "l",
        "h"
      ],
      [
        "d",
        "a"
      ],
      [
        "Ġ",
        "se"
      ],
      [
        "Ã",
        "§"
      ],
      [
        "Ġ",
        "v"
      ],
      [
        "m",
        "e"
      ],
      [
        "Ġ",
        "s"
      ],
      [
        "o",
        "u"
      ],
      [
        "Ã",
        "©"
      ],
      [
        "t",
        "a"
      ],
      [
        "d",
        "e"
      ],
      [
        "Ã",
        "¡"
      ],
      [
        "l",
        "a"
      ],
      [
        "v",
        "a"
      ],
      [
        "Ġ",
        "um"
      ],
      [
        "l",
        "e"
      ],
      [
        "r",
        "o"
      ],
      [
        "Ġe",
        "s"
      ],
      [
        "nt",
        "e"
      ],
      [
        "Ġn",
        "Ã£o"
      ],
      [
        "t",
        "o"
      ],
      [
        "Ġp",
        "a"
      ],
      [
        "â",
        "Ģ"
      ],
      [
        "Ġco",
        "m"
      ],
      [
        "âĢ",
        "Ķ"
      ],
      [
        "Ġd",
        "o"
      ],
      [
        "i",
        "m"
      ],
      [
        "e",
        "n"
      ],
      [
        "a",
        "n"
      ],
      [
        "Ġd",
        "a"
      ],
      [
        "e",
        "m"
      ],
      [
        "r",
        "i"
      ],
      [
        "h",
        "a"
      ],
      [
        ".",
        "."
      ],
      [
        "Ġ",
        "re"
      ],
      [
        "a",
        "l"
      ],
      [
        "Ã",
        "Ń"
      ],
      [
        "c",
        "o"
      ],
      [
        "lh",
        "e"
      ],
      [
        "t",
        "e"
      ],
      [
        "Ġo",
        "u"
      ],
      [
        "c",
        "a"
      ],
      [
        "Ġ",
        "b"
      ],
      [
        "e",
        "i"
      ],
      [
        "l",
        "o"
      ],
      [
        "g",
        "u"
      ],
      [
        "i",
        "r"
      ],
      [
        "Ã§",
        "Ã£o"
      ],
      [
        "Ġ",
        "E"
      ],
      [
        "c",
        "i"
      ],
      [
        "Ġm",
        "e"
      ],
      [
        "Ġ",
        "Ã"
      ],
      [
        "Ġa",
        "s"
      ],
      [
        "Ġ",
        "A"
      ],
      [
        "l",
        "i"
      ],
      [
        "Ġ",
        "os"
      ],
      [
        "g",
        "o"
      ],
      [
        "Ã",
        "³"
      ],
      [
        "t",
        "i"
      ],
      [
        "v",
        "e"
      ],
      [
        "Ġn",
        "o"
      ],
      [
        "s",
        "a"
      ],
      [
        "Ġ",
        "Ã©"
      ],
      [
        "Ġn",
        "a"
      ],
      [
        "Ã",
        "ª"
      ],
      [
        "Ġe",
        "ra"
      ],
      [
        "Ġe",
        "m"
      ],
      [
        "h",
        "o"
      ],
      [
        "p",
        "o"
      ],
      [
        "Ġpa",
        "ra"
      ],
      [
        "Ġp",
        "or"
      ],
      [
        "Ġ",
        "N"
      ],
      [
        "a",
        "m"
      ],
      [
        "Ġum",
        "a"
      ],
      [
        "Ã§",
        "a"
      ],
      [
        "s",
        "o"
      ],
      [
        "Ġa",
        "l"
      ],
      [
        "c",
        "e"
      ],
      [
        "Ġco",
        "n"
      ],
      [
        "Ġm",
        "a"
      ],
      [
        "Ġ",
        "g"
      ],
      [
        "in",
        "ha"
      ],
      [
        "Ġ",
        "C"
      ],
      [
        "Ġd",
        "i"
      ],
      [
        "t",
        "u"
      ],
      [
        "nt",
        "o"
      ],
      [
        "re",
        "s"
      ],
      [
        "Ġm",
        "as"
      ],
      [
        "ĠÃ",
        "ł"
      ],
      [
        "u",
        "s"
      ],
      [
        "da",
        "de"
      ],
      [
        "me",
        "nte"
      ],
      [
        "d",
        "i"
      ],
      [
        "p",
        "e"
      ],
      [
        "Ġc",
        "a"
      ],
      [
        "m",
        "a"
      ],
      [
        "c",
        "ia"
      ],
      [
        "p",
        "a"
      ],
      [
        "r",
        "ia"
      ],
      [
        "m",
        "o"
      ],
      [
        "u",
        "i"
      ],
      [
        "Ġa",
        "o"
      ],
      [
        "Ġ",
        "P"
      ],
      [
        "Ġ",
        "D"
      ],
      [
        "Ġf",
        "i"
      ],
      [
        "t",
        "ra"
      ],
      [
        "an",
        "do"
      ],
      [
        "Ġ",
        "qu"
      ],
      [
        "Ġd",
        "is"
      ],
      [
        "Ġs",
        "a"
      ],
      [
        "Ġp",
        "o"
      ],
      [
        "Ġde",
        "s"
      ],
      [
        "Ġ",
        "S"
      ],
      [
        "Ġ",
        "lhe"
      ],
      [
        "g",
        "a"
      ],
      [
        "Ġ",
        "j"
      ],
      [
        "Ġf",
        "o"
      ],
      [
        "Ġ",
        "in"
      ],
      [
        "Ġv",
        "i"
      ],
      [
        "Ġ",
        "i"
      ],
      [
        "Ġma",
        "is"
      ],
      [
        "Ġe",
        "le"
      ],
      [
        "ra",
        "n"
      ],
      [
        "Ġ",
        "l"
      ],
      [
        "Ġp",
        "e"
      ],
      [
        "v",
        "i"
      ],
      [
        "u",
        "n"
      ],
      [
        "Ġ",
        "O"
      ],
      [
        "d",
        "os"
      ],
      [
        "Ġc",
        "as"
      ],
      [
        "Ġm",
        "o"
      ],
      [
        "ra",
        "s"
      ],
      [
        "nt",
        "a"
      ],
      [
        "ĠN",
        "Ã£o"
      ],
      [
        "Ġ",
        "M"
      ],
      [
        "ra",
        "m"
      ],
      [
        "c",
        "u"
      ],
      [
        "Ġt",
        "o"
      ],
      [
        "Ġf",
        "a"
      ],
      [
        "..",
        "."
      ],
      [
        "Ġv",
        "e"
      ],
      [
        "Ġcom",
        "o"
      ],
      [
        "Ã©",
        "m"
      ],
      [
        "Ġ",
        "le"
      ],
      [
        "Ġa",
        "m"
      ],
      [
        "Ġe",
        "u"
      ],
      [
        "n",
        "a"
      ],
      [
        "Ġa",
        "c"
      ],
      [
        "Ġe",
        "nt"
      ],
      [
        "d",
        "ia"
      ],
      [
        "Ġs",
        "u"
      ],
      [
        "Ġp",
        "er"
      ],
      [
        "i",
        "o"
      ],
      [
        "Ġe",
        "x"
      ],
      [
        "Ġs",
        "o"
      ],
      [
        "Ġdis",
        "se"
      ],
      [
        "Ġse",
        "m"
      ],
      [
        "ĠE",
        "s"
      ],
      [
        "Ġe",
        "la"
      ],
      [
        "Ġ",
        "h"
      ],
      [
        "Ġ",
        "T"
      ],
      [
        "ta",
        "va"
      ],
      [
        "Ġo",
        "lh"
      ],
      [
        "v",
        "er"
      ],
      [
        "t",
        "Ã¡"
      ],
      [
        "Q",
        "u"
      ],
      [
        "b",
        "e"
      ],
      [
        "Ġ",
        "V"
      ],
      [
        "t",
        "as"
      ],
      [
        "i",
        "ra"
      ],
      [
        "Ãª",
        "n"
      ],
      [
        "d",
        "as"
      ],
      [
        "Ġfo",
        "i"
      ],
      [
        "Ġm",
        "es"
      ],
      [
        "Ġt",
        "em"
      ],
      [
        "g",
        "um"
      ],
      [
        "Ġ",
        "ho"
      ],
      [
        "t",
        "ro"
      ],
      [
        "lh",
        "a"
      ],
      [
        "i",
        "x"
      ],
      [
        "Ġe",
        "n"
      ],
      [
        "r",
        "os"
      ],
      [
        "Ġv",
        "o"
      ],
      [
        "v",
        "o"
      ],
      [
        "Ã",
        "µ"
      ],
      [
        "Ġv",
        "er"
      ],
      [
        "h",
        "e"
      ],
      [
        "Ġm",
        "ui"
      ],
      [
        "Ġre",
        "s"
      ],
      [
        "t",
        "os"
      ],
      [
        "Ġse",
        "r"
      ],
      [
        "Ġcas",
        "a"
      ],
      [
        "b",
        "i"
      ],
      [
        "n",
        "o"
      ],
      [
        "Ġd",
        "os"
      ],
      [
        "n",
        "do"
      ],
      [
        "Ãµ",
        "es"
      ],
      [
        "Ġ",
        "R"
      ],
      [
        "Ġ",
        "J"
      ],
      [
        "Ġn",
        "em"
      ],
      [
        "Ġp",
        "ro"
      ],
      [
        "n",
        "s"
      ],
      [
        "Ġ",
        "Qu"
      ],
      [
        "Ã",
        "º"
      ],
      [
        "t",
        "ar"
      ],
      [
        "d",
        "es"
      ],
      [
        "b",
        "a"
      ],
      [
        "ci",
        "o"
      ],
      [
        "Ġdi",
        "z"
      ],
      [
        "Ġal",
        "gum"
      ],
      [
        "Ġ",
        "âĢĶ"
      ],
      [
        "Ġco",
        "is"
      ],
      [
        "ri",
        "o"
      ],
      [
        "Ġ",
        "F"
      ],
      [
        "Ġp",
        "re"
      ],
      [
        "nt",
        "es"
      ],
      [
        "Ġou",
        "tra"
      ],
      [
        "po",
        "is"
      ],
      [
        "Ġa",
        "p"
      ],
      [
        "t",
        "ou"
      ],
      [
        "Ã§",
        "o"
      ],
      [
        "g",
        "e"
      ],
      [
        "in",
        "a"
      ],
      [
        "Ġb",
        "o"
      ],
      [
        "Ġve",
        "z"
      ],
      [
        "v",
        "ia"
      ],
      [
        "u",
        "do"
      ],
      [
        "im",
        "a"
      ],
      [
        "Ġ",
        "lo"
      ],
      [
        "me",
        "nto"
      ],
      [
        "l",
        "es"
      ],
      [
        "Ġa",
        "t"
      ],
      [
        "Ġco",
        "nt"
      ],
      [
        "Ġa",
        "n"
      ],
      [
        "Ġp",
        "as"
      ],
      [
        "in",
        "da"
      ],
      [
        "r",
        "is"
      ],
      [
        "lh",
        "o"
      ],
      [
        "m",
        "b"
      ],
      [
        "n",
        "de"
      ],
      [
        "qu",
        "i"
      ],
      [
        "Ġs",
        "i"
      ],
      [
        "Ġolh",
        "os"
      ],
      [
        "Ġs",
        "Ã³"
      ],
      [
        "p",
        "i"
      ],
      [
        "nt",
        "i"
      ],
      [
        "Ġt",
        "er"
      ],
      [
        "Ġp",
        "r"
      ],
      [
        "am",
        "b"
      ],
      [
        "l",
        "ia"
      ],
      [
        "Ġ",
        "L"
      ],
      [
        "Ġpa",
        "re"
      ],
      [
        "c",
        "as"
      ],
      [
        "Ġm",
        "Ã£"
      ],
      [
        "Ġd",
        "as"
      ],
      [
        "ri",
        "me"
      ],
      [
        "Ġ",
        "ir"
      ],
      [
        "Ġn",
        "os"
      ],
      [
        "i",
        "dade"
      ],
      [
        "Ġf",
        "e"
      ],
      [
        "Ġfa",
        "z"
      ],
      [
        "c",
        "er"
      ],
      [
        "Ġt",
        "inha"
      ],
      [
        "s",
        "im"
      ],
      [
        "Ġde",
        "pois"
      ],
      [
        "p",
        "re"
      ],
      [
        "amb",
        "Ã©m"
      ],
      [
        "Ġp",
        "ou"
      ],
      [
        "r",
        "ou"
      ],
      [
        "Ã",
        "´"
      ],
      [
        "p",
        "os"
      ],
      [
        "Ġmui",
        "to"
      ],
      [
        "..",
        ".."
      ],
      [
        "l",
        "os"
      ],
      [
        "r",
        "u"
      ],
      [
        "Ġc",
        "ar"
      ],
      [
        "l",
        "as"
      ],
      [
        "Ġd",
        "ia"
      ],
      [
        "ra",
        "Ã§Ã£o"
      ],
      [
        "Ġse",
        "n"
      ],
      [
        "m",
        "os"
      ],
      [
        "Ġa",
        "inda"
      ],
      [
        "en",
        "do"
      ],
      [
        "f",
        "i"
      ],
      [
        "Ġa",
        "r"
      ],
      [
        "Ġna",
        "da"
      ],
      [
        "es",
        "se"
      ],
      [
        "Ġtem",
        "po"
      ],
      [
        "i",
        "go"
      ],
      [
        "Ġd",
        "u"
      ],
      [
        "Ġou",
        "tro"
      ],
      [
        "Ġm",
        "en"
      ],
      [
        "Ãªn",
        "cia"
      ],
      [
        "Ġcois",
        "a"
      ],
      [
        "Ġa",
        "b"
      ],
      [
        "Ġ",
        "H"
      ],
      [
        "Ġ",
        "is"
      ],
      [
        "la",
        "v"
      ],
      [
        "re",
        "i"
      ],
      [
        "Ġm",
        "inha"
      ],
      [
        "Ġt",
        "ra"
      ],
      [
        "Ġt",
        "udo"
      ],
      [
        "Ã§",
        "Ãµes"
      ],
      [
        "s",
        "u"
      ],
      [
        "d",
        "er"
      ],
      [
        "ve",
        "l"
      ],
      [
        "z",
        "a"
      ],
      [
        "Ġl",
        "Ã¡"
      ],
      [
        "e",
        "le"
      ],
      [
        "t",
        "er"
      ],
      [
        "Ġ",
        "I"
      ],
      [
        "Ġ",
        "B"
      ],
      [
        "ra",
        "r"
      ],
      [
        "a",
        "i"
      ],
      [
        "im",
        "p"
      ],
      [
        "ar",
        "ia"
      ],
      [
        "co",
        "n"
      ],
      [
        "Ġ",
        "ra"
      ],
      [
        "ĠC",
        "o"
      ],
      [
        "Ġp",
        "en"
      ],
      [
        "Ġt",
        "e"
      ],
      [
        "nt",
        "os"
      ],
      [
        "Ġh",
        "Ã¡"
      ],
      [
        "f",
        "e"
      ],
      [
        "in",
        "u"
      ],
      [
        "Ġp",
        "rime"
      ],
      [
        "Ġt",
        "ambÃ©m"
      ],
      [
        "d",
        "Ã©"
      ],
      [
        "go",
        "ra"
      ],
      [
        "Ġqu",
        "ando"
      ],
      [
        "Ġes",
        "ta"
      ],
      [
        "Ġco",
        "r"
      ],
      [
        "tu",
        "ra"
      ],
      [
        "Ġj",
        "Ã¡"
      ],
      [
        "ce",
        "u"
      ],
      [
        "b",
        "o"
      ],
      [
        "ĠP",
        "a"
      ],
      [
        "Ġ",
        "ia"
      ],
      [
        "Ġmes",
        "mo"
      ],
      [
        "c",
        "ar"
      ],
      [
        "c",
        "h"
      ],
      [
        "g",
        "ar"
      ],
      [
        "Ġt",
        "Ã£o"
      ],
      [
        "co",
        "m"
      ],
      [
        "Ġes",
        "tava"
      ],
      [
        "va",
        "m"
      ],
      [
        "Ġm",
        "or"
      ],
      [
        "Ġp",
        "ar"
      ],
      [
        "es",
        "so"
      ],
      [
        "c",
        "re"
      ],
      [
        "nt",
        "ou"
      ],
      [
        "Ġf",
        "al"
      ],
      [
        "Ġme",
        "u"
      ],
      [
        "Ġpa",
        "lav"
      ],
      [
        "Ġpo",
        "dia"
      ],
      [
        "Ġ",
        "ha"
      ],
      [
        "Ġde",
        "ix"
      ],
      [
        "ei",
        "o"
      ],
      [
        "nt",
        "er"
      ],
      [
        "C",
        "A"
      ],
      [
        "Ã",
        "į"
      ],
      [
        "Ġm",
        "u"
      ],
      [
        "Ġho",
        "me"
      ],
      [
        "L",
        "O"
      ],
      [
        "i",
        "u"
      ],
      [
        "T",
        "U"
      ],
      [
        "b",
        "re"
      ],
      [
        "i",
        "ro"
      ],
      [
        "Ġ",
        "G"
      ],
      [
        "Ġf",
        "or"
      ],
      [
        "ÃŃ",
        "s"
      ],
      [
        "j",
        "a"
      ],
      [
        "Ġ",
        "li"
      ],
      [
        "um",
        "a"
      ],
      [
        "Ġt",
        "a"
      ],
      [
        "CA",
        "P"
      ],
      [
        "TU",
        "LO"
      ],
      [
        "os",
        "se"
      ],
      [
        "in",
        "h"
      ],
      [
        "Ġdo",
        "is"
      ],
      [
        "an",
        "h"
      ],
      [
        "Ãį",
        "TULO"
      ],
      [
        "Ġent",
        "re"
      ],
      [
        "CAP",
        "ÃįTULO"
      ],
      [
        "Ġo",
        "b"
      ],
      [
        "Ġpou",
        "co"
      ],
      [
        "u",
        "l"
      ],
      [
        "as",
        "se"
      ],
      [
        "Ġse",
        "u"
      ],
      [
        "ĠM",
        "as"
      ],
      [
        "Ġex",
        "p"
      ],
      [
        "i",
        "as"
      ],
      [
        "i",
        "or"
      ],
      [
        "Ġqu",
        "a"
      ],
      [
        "Ġat",
        "Ã©"
      ],
      [
        "Ġes",
        "pe"
      ],
      [
        "ĠD",
        "e"
      ],
      [
        "Ġn",
        "e"
      ],
      [
        "ei",
        "to"
      ],
      [
        "Ġal",
        "gu"
      ],
      [
        "Ġdiz",
        "er"
      ],
      [
        "i",
        "ta"
      ],
      [
        "n",
        "Ã§a"
      ],
      [
        "Ġ",
        "la"
      ],
      [
        "in",
        "do"
      ],
      [
        "ĠmÃ£",
        "e"
      ],
      [
        "Ã³",
        "p"
      ],
      [
        "ĠR",
        "u"
      ],
      [
        "Ġp",
        "os"
      ],
      [
        "d",
        "u"
      ],
      [
        "Ġpor",
        "que"
      ],
      [
        "Ġno",
        "i"
      ],
      [
        "in",
        "ho"
      ],
      [
        "e",
        "nte"
      ],
      [
        "r",
        "Ã¡"
      ],
      [
        "or",
        "ge"
      ],
      [
        "Ġmo",
        "Ã§a"
      ],
      [
        "bi",
        "Ã£o"
      ],
      [
        "p",
        "er"
      ],
      [
        "es",
        "s"
      ],
      [
        "f",
        "ia"
      ],
      [
        "ve",
        "z"
      ],
      [
        "Ġmen",
        "os"
      ],
      [
        "c",
        "ou"
      ],
      [
        "l",
        "u"
      ],
      [
        "Ġc",
        "he"
      ],
      [
        "Ġalgum",
        "a"
      ],
      [
        "Ġsa",
        "b"
      ],
      [
        "Ġm",
        "ar"
      ],
      [
        "Ġt",
        "al"
      ],
      [
        "Ġin",
        "s"
      ],
      [
        "Ġc",
        "er"
      ],
      [
        "Ġper",
        "gu"
      ],
      [
        "do",
        "r"
      ],
      [
        "Ġse",
        "gu"
      ],
      [
        "t",
        "es"
      ],
      [
        "Ġa",
        "ca"
      ],
      [
        "Ġa",
        "gora"
      ],
      [
        "l",
        "ar"
      ],
      [
        "Ãª",
        "s"
      ],
      [
        "Ġg",
        "ran"
      ],
      [
        "ĠÃ",
        "º"
      ],
      [
        "nt",
        "ar"
      ],
      [
        "i",
        "do"
      ],
      [
        "ĠÃł",
        "s"
      ],
      [
        "Ġlo",
        "go"
      ],
      [
        "Ġa",
        "f"
      ],
      [
        "Ġas",
        "sim"
      ],
      [
        "Ã",
        "¢"
      ],
      [
        "Ġg",
        "ra"
      ],
      [
        "Ġpo",
        "de"
      ],
      [
        "Ġb",
        "em"
      ],
      [
        "m",
        "ar"
      ],
      [
        "g",
        "ra"
      ],
      [
        "Ġa",
        "os"
      ],
      [
        "que",
        "la"
      ],
      [
        "en",
        "h"
      ],
      [
        "o",
        "n"
      ],
      [
        "se",
        "s"
      ],
      [
        "Ġf",
        "osse"
      ],
      [
        "Ġes",
        "te"
      ],
      [
        "Ġpa",
        "i"
      ],
      [
        "tÃ¡",
        "cio"
      ],
      [
        "g",
        "ou"
      ],
      [
        "is",
        "t"
      ],
      [
        "Ġv",
        "is"
      ],
      [
        "Ġvi",
        "da"
      ],
      [
        "Ġalgu",
        "ns"
      ],
      [
        "Ġp",
        "esso"
      ],
      [
        "t",
        "Ã£o"
      ],
      [
        "Ġhome",
        "m"
      ],
      [
        "Ġca",
        "be"
      ],
      [
        "Ġac",
        "h"
      ],
      [
        "Ġdu",
        "as"
      ],
      [
        "g",
        "os"
      ],
      [
        "Ġ",
        "U"
      ],
      [
        "Ġa",
        "li"
      ],
      [
        "Ġver",
        "dade"
      ],
      [
        "j",
        "o"
      ],
      [
        "Ġera",
        "m"
      ],
      [
        "Ġsu",
        "a"
      ],
      [
        "c",
        "or"
      ],
      [
        "Ġm",
        "im"
      ],
      [
        "ele",
        "na"
      ],
      [
        "Ġvo",
        "l"
      ],
      [
        "Ġco",
        "raÃ§Ã£o"
      ],
      [
        "ĠS",
        "e"
      ],
      [
        "t",
        "or"
      ],
      [
        "p",
        "or"
      ],
      [
        "Ġv",
        "a"
      ],
      [
        "p",
        "ÃŃ"
      ],
      [
        "Ġc",
        "h"
      ],
      [
        "s",
        "i"
      ],
      [
        "Ġse",
        "nti"
      ],
      [
        "Ġm",
        "al"
      ],
      [
        "ĠEs",
        "te"
      ],
      [
        "ÃŃ",
        "lia"
      ],
      [
        "Ġb",
        "a"
      ],
      [
        "lh",
        "os"
      ],
      [
        "Ã§",
        "as"
      ],
      [
        "s",
        "Ã£o"
      ],
      [
        "Ġm",
        "an"
      ],
      [
        "Ġp",
        "u"
      ],
      [
        "c",
        "is"
      ],
      [
        "ei",
        "ro"
      ],
      [
        "ĠE",
        "u"
      ],
      [
        "ĠE",
        "ra"
      ],
      [
        "ĠC",
        "a"
      ],
      [
        "os",
        "a"
      ],
      [
        "ĠQu",
        "e"
      ],
      [
        "d",
        "ar"
      ],
      [
        "j",
        "e"
      ],
      [
        "Ġi",
        "nter"
      ],
      [
        "Ġi",
        "nte"
      ],
      [
        "Ġpe",
        "la"
      ],
      [
        "Ġi",
        "dÃ©"
      ],
      [
        "ĠJ",
        "orge"
      ],
      [
        "c",
        "Ãª"
      ],
      [
        "Ġmes",
        "ma"
      ],
      [
        "pa",
        "re"
      ],
      [
        "Ġp",
        "Ã©"
      ],
      [
        "lh",
        "or"
      ],
      [
        "t",
        "ros"
      ],
      [
        "que",
        "le"
      ],
      [
        "Ġn",
        "as"
      ],
      [
        "Ġt",
        "i"
      ],
      [
        "f",
        "a"
      ],
      [
        "t",
        "ia"
      ],
      [
        "Ġl",
        "u"
      ],
      [
        "n",
        "i"
      ],
      [
        "Ġ",
        "imp"
      ],
      [
        "g",
        "em"
      ],
      [
        "Ġou",
        "vi"
      ],
      [
        "Ġlo",
        "n"
      ],
      [
        "Ġa",
        "qui"
      ],
      [
        "ĠRu",
        "biÃ£o"
      ],
      [
        "Ġcon",
        "f"
      ],
      [
        "Ġm",
        "Ã£o"
      ],
      [
        "Ġcon",
        "se"
      ],
      [
        "Ġc",
        "u"
      ],
      [
        "Ġle",
        "mb"
      ],
      [
        "Ġpr",
        "Ã³p"
      ],
      [
        "ra",
        "va"
      ],
      [
        "Ġes",
        "t"
      ],
      [
        "Ġis",
        "so"
      ],
      [
        "c",
        "os"
      ],
      [
        "Ġde",
        "se"
      ],
      [
        "Ġres",
        "po"
      ],
      [
        "p",
        "Ã©"
      ],
      [
        "un",
        "do"
      ],
      [
        "....",
        "...."
      ],
      [
        "m",
        "as"
      ],
      [
        "Ġa",
        "ntes"
      ],
      [
        "Ġnoi",
        "te"
      ],
      [
        "Ġse",
        "us"
      ],
      [
        "ĠN",
        "a"
      ],
      [
        "Ġan",
        "os"
      ],
      [
        "n",
        "Ã£o"
      ],
      [
        "Ã¡",
        "s"
      ],
      [
        "un",
        "ca"
      ],
      [
        "Ġent",
        "Ã£o"
      ],
      [
        "Ġes",
        "tÃ¡"
      ],
      [
        "Ġs",
        "or"
      ],
      [
        "Ġto",
        "dos"
      ],
      [
        "Ã¢",
        "n"
      ],
      [
        "Ġme",
        "lhor"
      ],
      [
        "g",
        "i"
      ],
      [
        "Ġcom",
        "p"
      ],
      [
        "Ġfe",
        "z"
      ],
      [
        "I",
        "I"
      ],
      [
        "n",
        "os"
      ],
      [
        "in",
        "gu"
      ],
      [
        "Ġg",
        "os"
      ],
      [
        "Ġdi",
        "as"
      ],
      [
        "ĠH",
        "elena"
      ],
      [
        "e",
        "la"
      ],
      [
        "Ġpalav",
        "ras"
      ],
      [
        "Ġgran",
        "de"
      ],
      [
        "v",
        "es"
      ],
      [
        "Ġc",
        "am"
      ],
      [
        "ho",
        "ra"
      ],
      [
        "c",
        "l"
      ],
      [
        "Ġt",
        "r"
      ],
      [
        "f",
        "er"
      ],
      [
        "Ġis",
        "to"
      ],
      [
        "Ġha",
        "via"
      ],
      [
        "e",
        "ra"
      ],
      [
        "E",
        "s"
      ],
      [
        "u",
        "ÃŃs"
      ],
      [
        "lh",
        "er"
      ],
      [
        "li",
        "ca"
      ],
      [
        "ĠEs",
        "tÃ¡cio"
      ],
      [
        "d",
        "re"
      ],
      [
        "Ġc",
        "ria"
      ],
      [
        "ĠP",
        "o"
      ],
      [
        "Ġam",
        "i"
      ],
      [
        "a",
        "va"
      ],
      [
        "Ġre",
        "ce"
      ],
      [
        "Ġpas",
        "s"
      ],
      [
        "ĠS",
        "a"
      ],
      [
        "Ġam",
        "or"
      ],
      [
        "Ġa",
        "d"
      ],
      [
        "am",
        "os"
      ],
      [
        "Ġcon",
        "s"
      ],
      [
        "Ġc",
        "re"
      ],
      [
        "ia",
        "m"
      ],
      [
        "ri",
        "to"
      ],
      [
        "al",
        "mente"
      ],
      [
        "Ġpas",
        "sa"
      ],
      [
        "Ġde",
        "la"
      ],
      [
        "l",
        "t"
      ],
      [
        "Ġde",
        "u"
      ],
      [
        "Ġou",
        "tros"
      ],
      [
        "e",
        "l"
      ],
      [
        "ro",
        "m"
      ],
      [
        "Ġd",
        "ar"
      ],
      [
        "ci",
        "as"
      ],
      [
        "Ã³",
        "ria"
      ],
      [
        "Ġc",
        "ha"
      ],
      [
        "ÃŃ",
        "vel"
      ],
      [
        "Ġt",
        "or"
      ],
      [
        "Ġg",
        "es"
      ],
      [
        "nde",
        "u"
      ],
      [
        "X",
        "X"
      ],
      [
        "c",
        "ha"
      ],
      [
        "p",
        "en"
      ],
      [
        "Ġcabe",
        "Ã§a"
      ],
      [
        "l",
        "ÃŃ"
      ],
      [
        "u",
        "ra"
      ],
      [
        "Ġde",
        "le"
      ],
      [
        "tura",
        "l"
      ],
      [
        "b",
        "ar"
      ],
      [
        "Ġse",
        "i"
      ],
      [
        "Ġto",
        "das"
      ],
      [
        "i",
        "Ã£o"
      ],
      [
        "Ġt",
        "ar"
      ],
      [
        "ai",
        "Ã¡"
      ],
      [
        "h",
        "or"
      ],
      [
        "anh",
        "Ã£"
      ],
      [
        "pi",
        "tu"
      ],
      [
        "os",
        "t"
      ],
      [
        "Ġfi",
        "ca"
      ],
      [
        "Ġfa",
        "la"
      ],
      [
        "Ġqu",
        "al"
      ],
      [
        "m",
        "es"
      ],
      [
        "Ġcois",
        "as"
      ],
      [
        "es",
        "ta"
      ],
      [
        "im",
        "o"
      ],
      [
        "Ġfo",
        "ra"
      ],
      [
        "ĠO",
        "s"
      ],
      [
        "ĠmÃ£",
        "os"
      ],
      [
        "g",
        "re"
      ],
      [
        "Ã³",
        "s"
      ],
      [
        "Ġfi",
        "lha"
      ],
      [
        "ĠidÃ©",
        "ia"
      ],
      [
        "a",
        "nto"
      ],
      [
        "v",
        "esse"
      ],
      [
        "Ġpre",
        "cis"
      ],
      [
        "Ġ",
        "ru"
      ],
      [
        "di",
        "u"
      ],
      [
        "Ġes",
        "se"
      ],
      [
        "Ġf",
        "am"
      ],
      [
        "Ġal",
        "ma"
      ],
      [
        "n",
        "da"
      ],
      [
        "Ġo",
        "nde"
      ],
      [
        "re",
        "m"
      ],
      [
        "Ġn",
        "enh"
      ],
      [
        "Ġes",
        "que"
      ],
      [
        "Ġcar",
        "ta"
      ],
      [
        "o",
        "fia"
      ],
      [
        "ĠP",
        "e"
      ],
      [
        "fe",
        "re"
      ],
      [
        "Ġ",
        "ri"
      ],
      [
        "ta",
        "mente"
      ],
      [
        "os",
        "o"
      ],
      [
        "Ġtr",
        "Ãªs"
      ],
      [
        "z",
        "e"
      ],
      [
        "de",
        "u"
      ],
      [
        "Ġpor",
        "ta"
      ],
      [
        "Ġfaz",
        "er"
      ],
      [
        "Ġf",
        "im"
      ],
      [
        "Ġb",
        "ar"
      ],
      [
        "ti",
        "ca"
      ],
      [
        "pa",
        "ra"
      ],
      [
        "ĠÃº",
        "lt"
      ],
      [
        "c",
        "ess"
      ],
      [
        "Ã",
        "¼"
      ],
      [
        "Ġ",
        "\""
      ],
      [
        "ta",
        "nte"
      ],
      [
        "Ġpe",
        "lo"
      ],
      [
        "ĠL",
        "uÃŃs"
      ],
      [
        "Ġsen",
        "hora"
      ],
      [
        "Ġque",
        "m"
      ],
      [
        "un",
        "s"
      ],
      [
        "Ġprime",
        "ira"
      ],
      [
        "is",
        "se"
      ],
      [
        "Ġf",
        "u"
      ],
      [
        "N",
        "Ã£o"
      ],
      [
        "Ġe",
        "les"
      ],
      [
        "Ġes",
        "cre"
      ],
      [
        "Ġmar",
        "ido"
      ],
      [
        "Ġre",
        "p"
      ],
      [
        "res",
        "sa"
      ],
      [
        "Ġsen",
        "hor"
      ],
      [
        "u",
        "lo"
      ],
      [
        "Ġv",
        "ia"
      ],
      [
        "pa",
        "z"
      ],
      [
        "Ġto",
        "do"
      ],
      [
        "Ġso",
        "bre"
      ],
      [
        "Ġle",
        "va"
      ],
      [
        "r",
        "im"
      ],
      [
        "pe",
        "ra"
      ],
      [
        "gu",
        "e"
      ],
      [
        "b",
        "er"
      ],
      [
        "Ġco",
        "me"
      ],
      [
        "Ġvez",
        "es"
      ],
      [
        "es",
        "a"
      ],
      [
        "ta",
        "do"
      ],
      [
        "Ġli",
        "v"
      ],
      [
        "Ġre",
        "f"
      ],
      [
        "ti",
        "va"
      ],
      [
        "Ġc",
        "e"
      ],
      [
        "Ġm",
        "eio"
      ],
      [
        "Ġsu",
        "as"
      ],
      [
        "Ġs",
        "Ã£o"
      ],
      [
        "Ġvi",
        "u"
      ],
      [
        "Ġcont",
        "inu"
      ],
      [
        "Ġpare",
        "cia"
      ],
      [
        "f",
        "ÃŃ"
      ],
      [
        "Ã©",
        "s"
      ],
      [
        "ei",
        "ra"
      ],
      [
        "Ġpergu",
        "ntou"
      ],
      [
        "c",
        "la"
      ],
      [
        "Ġ",
        "im"
      ],
      [
        "Ġges",
        "to"
      ],
      [
        "g",
        "as"
      ],
      [
        "me",
        "ntos"
      ],
      [
        "ĠA",
        "s"
      ],
      [
        "Ġdiz",
        "ia"
      ],
      [
        "o",
        "mar"
      ],
      [
        "Ġ",
        "r"
      ],
      [
        "ui",
        "omar"
      ],
      [
        "Ġre",
        "pe"
      ],
      [
        "ĠÃ",
        "ī"
      ],
      [
        "Ġra",
        "z"
      ],
      [
        "Ġa",
        "le"
      ],
      [
        "Ġmu",
        "lher"
      ],
      [
        "ĠCa",
        "pitu"
      ],
      [
        "Ġto",
        "da"
      ],
      [
        "Ġoutra",
        "s"
      ],
      [
        "Ġn",
        "unca"
      ],
      [
        "ri",
        "u"
      ],
      [
        "Ġfe",
        "li"
      ],
      [
        "Ġtar",
        "de"
      ],
      [
        "s",
        "as"
      ],
      [
        "z",
        "ia"
      ],
      [
        "ver",
        "sa"
      ],
      [
        "Ġpalav",
        "ra"
      ],
      [
        "Ġpr",
        "in"
      ],
      [
        "se",
        "r"
      ],
      [
        "com",
        "p"
      ],
      [
        "d",
        "ir"
      ],
      [
        "o",
        "i"
      ],
      [
        "Ġv",
        "ir"
      ],
      [
        "t",
        "ÃŃ"
      ],
      [
        "l",
        "Ã¡"
      ],
      [
        "ga",
        "do"
      ],
      [
        "Ġvo",
        "z"
      ],
      [
        "Ġg",
        "ente"
      ],
      [
        "Ġse",
        "ria"
      ],
      [
        "Ã§",
        "os"
      ],
      [
        "Ġs",
        "im"
      ],
      [
        "ingu",
        "Ã©m"
      ],
      [
        "Ġs",
        "us"
      ],
      [
        "ri",
        "os"
      ],
      [
        "Ġna",
        "tural"
      ],
      [
        "ĠEste",
        "la"
      ],
      [
        "i",
        "nte"
      ],
      [
        "Ġp",
        "Ã´"
      ],
      [
        "ri",
        "as"
      ],
      [
        "Ġe",
        "nte"
      ],
      [
        "in",
        "o"
      ],
      [
        "ĠI",
        "aiÃ¡"
      ],
      [
        "e",
        "x"
      ],
      [
        "f",
        "im"
      ],
      [
        "t",
        "is"
      ],
      [
        "da",
        "des"
      ],
      [
        "Ġpar",
        "te"
      ],
      [
        "co",
        "nt"
      ],
      [
        "ti",
        "vo"
      ],
      [
        "ris",
        "te"
      ],
      [
        "Ġpesso",
        "a"
      ],
      [
        "Ġp",
        "ra"
      ],
      [
        "Ġj",
        "u"
      ],
      [
        "Ġfi",
        "lho"
      ],
      [
        "n",
        "e"
      ],
      [
        "Ġam",
        "igo"
      ],
      [
        "ĠJ",
        "Ã¡"
      ],
      [
        "Ġalgum",
        "as"
      ],
      [
        "Ġir",
        "m"
      ],
      [
        "c",
        "ri"
      ],
      [
        "Ã¡",
        "rio"
      ],
      [
        "vi",
        "dade"
      ],
      [
        "Ġam",
        "b"
      ],
      [
        "Ġm",
        "inu"
      ],
      [
        "Ġprime",
        "iro"
      ],
      [
        "pÃŃ",
        "rito"
      ],
      [
        "Ġde",
        "f"
      ],
      [
        "Ġsa",
        "la"
      ],
      [
        "ran",
        "Ã§a"
      ],
      [
        "Ġac",
        "ha"
      ],
      [
        "ĠF",
        "i"
      ],
      [
        "Ġsem",
        "pre"
      ],
      [
        "Ġfal",
        "ar"
      ],
      [
        "Ġ",
        "ros"
      ],
      [
        "Ġtal",
        "vez"
      ],
      [
        "Ġrespo",
        "ndeu"
      ],
      [
        "ĠA",
        "l"
      ],
      [
        "ran",
        "do"
      ],
      [
        "Ġbo",
        "a"
      ],
      [
        "ti",
        "u"
      ],
      [
        "Ġle",
        "i"
      ],
      [
        "q",
        "Ã¼"
      ],
      [
        "Ġes",
        "sa"
      ],
      [
        "Ġcom",
        "igo"
      ],
      [
        "Ġcas",
        "o"
      ],
      [
        "Ġd",
        "or"
      ],
      [
        "um",
        "e"
      ],
      [
        "Ã©",
        "u"
      ],
      [
        "pe",
        "l"
      ],
      [
        "Ġt",
        "u"
      ],
      [
        "Ġb",
        "ra"
      ],
      [
        "Ġfi",
        "cou"
      ],
      [
        "c",
        "ÃŃ"
      ],
      [
        "Ġt",
        "en"
      ],
      [
        "ci",
        "dade"
      ],
      [
        "Ġj",
        "a"
      ],
      [
        "Ġsab",
        "er"
      ],
      [
        "d",
        "ro"
      ],
      [
        "Ġvo",
        "cÃª"
      ],
      [
        "u",
        "sa"
      ],
      [
        "Ġho",
        "ras"
      ],
      [
        "li",
        "dade"
      ],
      [
        "Ġqu",
        "i"
      ],
      [
        "ĠQu",
        "ando"
      ],
      [
        "ris",
        "tÃ£o"
      ],
      [
        "m",
        "i"
      ],
      [
        "m",
        "u"
      ],
      [
        "t",
        "em"
      ],
      [
        "gu",
        "ia"
      ],
      [
        "Ġno",
        "me"
      ],
      [
        "tu",
        "a"
      ],
      [
        "ĠD",
        "ias"
      ],
      [
        "Ġref",
        "le"
      ],
      [
        "Ġraz",
        "Ã£o"
      ],
      [
        "ÃŃ",
        "n"
      ],
      [
        "ĠE",
        "nt"
      ],
      [
        "Ġpen",
        "sa"
      ],
      [
        "Ġta",
        "nto"
      ],
      [
        "lh",
        "as"
      ],
      [
        "nte",
        "m"
      ],
      [
        "z",
        "er"
      ],
      [
        "Ġfam",
        "ÃŃlia"
      ],
      [
        "p",
        "ro"
      ],
      [
        "v",
        "ir"
      ],
      [
        "que",
        "r"
      ],
      [
        "res",
        "sÃ£o"
      ],
      [
        "s",
        "ar"
      ],
      [
        "Ġt",
        "ran"
      ],
      [
        "Ġo",
        "r"
      ],
      [
        "Ġaca",
        "b"
      ],
      [
        "se",
        "m"
      ],
      [
        "lh",
        "es"
      ],
      [
        "Ġa",
        "ma"
      ],
      [
        "ĠC",
        "ar"
      ],
      [
        "Ġs",
        "imp"
      ],
      [
        "Ã©",
        "di"
      ],
      [
        "Ġes",
        "pÃŃrito"
      ],
      [
        "nt",
        "ro"
      ],
      [
        "Ġcon",
        "he"
      ],
      [
        "Ġj",
        "an"
      ],
      [
        "Ã´",
        "n"
      ],
      [
        "Ġpar",
        "ti"
      ],
      [
        "b",
        "ra"
      ],
      [
        "v",
        "en"
      ],
      [
        "ĠS",
        "ofia"
      ],
      [
        "ĠU",
        "m"
      ],
      [
        "Ġpa",
        "dre"
      ],
      [
        "m",
        "ou"
      ],
      [
        "e",
        "nt"
      ],
      [
        "Ġque",
        "ria"
      ],
      [
        "Ġv",
        "inha"
      ],
      [
        "Ġs",
        "ou"
      ],
      [
        "ma",
        "is"
      ],
      [
        "s",
        "os"
      ],
      [
        "l",
        "Ãªn"
      ],
      [
        "s",
        "ÃŃvel"
      ],
      [
        "Ġmo",
        "do"
      ],
      [
        "nta",
        "va"
      ],
      [
        "Ġros",
        "to"
      ],
      [
        "g",
        "ina"
      ],
      [
        "Ġt",
        "riste"
      ],
      [
        "an",
        "a"
      ],
      [
        "Ġcer",
        "to"
      ],
      [
        "i",
        "res"
      ],
      [
        "t",
        "Ã©"
      ],
      [
        "Ġ",
        "ro"
      ],
      [
        "da",
        "va"
      ],
      [
        "f",
        "or"
      ],
      [
        "j",
        "u"
      ],
      [
        "qu",
        "anto"
      ],
      [
        "Ġse",
        "nt"
      ],
      [
        "di",
        "do"
      ],
      [
        "b",
        "u"
      ],
      [
        "ix",
        "o"
      ],
      [
        "inh",
        "as"
      ],
      [
        "Ã¢n",
        "cia"
      ],
      [
        "Ġminu",
        "tos"
      ],
      [
        "do",
        "u"
      ],
      [
        "lo",
        "ra"
      ],
      [
        "Ãº",
        "va"
      ],
      [
        "Ġbo",
        "m"
      ],
      [
        "p",
        "ar"
      ],
      [
        "Ġc",
        "al"
      ],
      [
        "i",
        "Ã§Ã£o"
      ],
      [
        "ar",
        "cia"
      ],
      [
        "ĠN",
        "o"
      ],
      [
        "Ġsu",
        "b"
      ],
      [
        "v",
        "ou"
      ],
      [
        "Ġv",
        "en"
      ],
      [
        "Ġv",
        "ai"
      ],
      [
        "en",
        "as"
      ],
      [
        "an",
        "ha"
      ],
      [
        "Ġb",
        "as"
      ],
      [
        "c",
        "ho"
      ],
      [
        "v",
        "os"
      ],
      [
        "ei",
        "ta"
      ],
      [
        "Ġfaz",
        "ia"
      ],
      [
        "Ġ",
        "ima"
      ],
      [
        "re",
        "r"
      ],
      [
        "Ġpo",
        "lÃŃ"
      ],
      [
        "f",
        "o"
      ],
      [
        "Ã¡",
        "vel"
      ],
      [
        "ĠA",
        "o"
      ],
      [
        "ĠPa",
        "ulo"
      ],
      [
        "m",
        "or"
      ],
      [
        "dÃ©",
        "lia"
      ],
      [
        "v",
        "as"
      ],
      [
        "tu",
        "lo"
      ],
      [
        "cu",
        "lo"
      ],
      [
        "Ġ",
        "gu"
      ],
      [
        "vi",
        "da"
      ],
      [
        "on",
        "esa"
      ],
      [
        "te",
        "i"
      ],
      [
        "ci",
        "do"
      ],
      [
        "Ġpare",
        "ce"
      ],
      [
        "ĠDe",
        "us"
      ],
      [
        "ĠT",
        "al"
      ],
      [
        "Ġap",
        "enas"
      ],
      [
        "ĠG",
        "uiomar"
      ],
      [
        "Ġprecis",
        "o"
      ],
      [
        "Ġsimp",
        "les"
      ],
      [
        "n",
        "der"
      ],
      [
        "s",
        "ou"
      ],
      [
        "Ġ",
        "go"
      ],
      [
        "Ġes",
        "pa"
      ],
      [
        "ĠO",
        "u"
      ],
      [
        "ĠG",
        "arcia"
      ],
      [
        "Ġamb",
        "os"
      ],
      [
        "Ġo",
        "cas"
      ],
      [
        "Ġn",
        "inguÃ©m"
      ],
      [
        "Ġes",
        "tar"
      ],
      [
        "Ġpesso",
        "as"
      ],
      [
        "Ġa",
        "pare"
      ],
      [
        "Ġc",
        "Ã¡"
      ],
      [
        "in",
        "al"
      ],
      [
        "ÃŃ",
        "a"
      ],
      [
        "Ġsa",
        "ir"
      ],
      [
        "Ġtor",
        "n"
      ],
      [
        "lÃªn",
        "cio"
      ],
      [
        "ir",
        "g"
      ],
      [
        "un",
        "ha"
      ],
      [
        "t",
        "re"
      ],
      [
        "Ġm",
        "undo"
      ],
      [
        "Ã§",
        "ar"
      ],
      [
        "Ġv",
        "eio"
      ],
      [
        "Ġqua",
        "se"
      ],
      [
        "ĠprÃ³p",
        "rio"
      ],
      [
        "Ġm",
        "is"
      ],
      [
        "Ã§",
        "ou"
      ],
      [
        "Ġfi",
        "z"
      ],
      [
        "ĠR",
        "e"
      ],
      [
        "Ġe",
        "r"
      ],
      [
        "ta",
        "l"
      ],
      [
        "Ġsa",
        "be"
      ],
      [
        "n",
        "h"
      ],
      [
        "ta",
        "ndo"
      ],
      [
        "Ġolh",
        "ar"
      ],
      [
        "a",
        "do"
      ],
      [
        "v",
        "Ã£o"
      ],
      [
        "Ġde",
        "via"
      ],
      [
        "es",
        "te"
      ],
      [
        "ĠCo",
        "n"
      ],
      [
        "m",
        "in"
      ],
      [
        "Ġpa",
        "pel"
      ],
      [
        "gu",
        "a"
      ],
      [
        "ir",
        "ou"
      ],
      [
        "Ġm",
        "i"
      ],
      [
        "Ġcon",
        "versa"
      ],
      [
        "Ġvi",
        "Ãºva"
      ],
      [
        "Ġho",
        "ra"
      ],
      [
        "pos",
        "ta"
      ],
      [
        "Ġla",
        "do"
      ],
      [
        "d",
        "Ã£o"
      ],
      [
        "ra",
        "do"
      ],
      [
        "Ġt",
        "ro"
      ],
      [
        "Ġes",
        "ti"
      ],
      [
        "Ġmor",
        "te"
      ],
      [
        "co",
        "mo"
      ],
      [
        "ĠS",
        "Ã£o"
      ],
      [
        "Ġlon",
        "ge"
      ],
      [
        "Ġru",
        "a"
      ],
      [
        "Ġp",
        "res"
      ],
      [
        "ir",
        "os"
      ],
      [
        "Ġme",
        "us"
      ],
      [
        "Ġno",
        "tÃŃ"
      ],
      [
        "Ġdes",
        "de"
      ],
      [
        "ĠV",
        "o"
      ],
      [
        "a",
        "da"
      ],
      [
        "p",
        "u"
      ],
      [
        "Ġc",
        "ost"
      ],
      [
        "os",
        "Ã©"
      ],
      [
        "ei",
        "Ã§Ã£o"
      ],
      [
        "Ġh",
        "ou"
      ],
      [
        "c",
        "an"
      ],
      [
        "Ġc",
        "ui"
      ],
      [
        "Ġv",
        "Ãª"
      ],
      [
        "ca",
        "ra"
      ],
      [
        "Ġach",
        "ou"
      ],
      [
        "Ġja",
        "ntar"
      ],
      [
        "irg",
        "ÃŃlia"
      ],
      [
        "Ġo",
        "p"
      ],
      [
        "me",
        "n"
      ],
      [
        "ga",
        "va"
      ],
      [
        "ĠU",
        "ma"
      ],
      [
        "ti",
        "vidade"
      ],
      [
        "Ġbar",
        "onesa"
      ],
      [
        "ĠFi",
        "dÃ©lia"
      ],
      [
        "d",
        "is"
      ],
      [
        "v",
        "ar"
      ],
      [
        "in",
        "as"
      ],
      [
        "um",
        "p"
      ],
      [
        "Ġho",
        "je"
      ],
      [
        "Ġne",
        "cess"
      ],
      [
        "guia",
        "r"
      ],
      [
        "Ġp",
        "Ã¡"
      ],
      [
        "Ġb",
        "ei"
      ],
      [
        "ĠE",
        "m"
      ],
      [
        "Ġsi",
        "lÃªncio"
      ],
      [
        "Ġc",
        "i"
      ],
      [
        "ve",
        "u"
      ],
      [
        "Ġj",
        "o"
      ],
      [
        "Ġso",
        "l"
      ],
      [
        "........",
        "........"
      ],
      [
        "ĠPe",
        "dro"
      ],
      [
        "nt",
        "as"
      ],
      [
        "ca",
        "va"
      ],
      [
        "Ġve",
        "lho"
      ],
      [
        "Ġnos",
        "sa"
      ],
      [
        "ĠPo",
        "is"
      ],
      [
        "Ġcre",
        "io"
      ],
      [
        "l",
        "or"
      ],
      [
        "re",
        "u"
      ],
      [
        "ci",
        "da"
      ],
      [
        "ĠT",
        "ristÃ£o"
      ],
      [
        "Ġc",
        "in"
      ],
      [
        "ĠA",
        "ires"
      ],
      [
        "Ġcasa",
        "mento"
      ],
      [
        "ĠF",
        "lora"
      ],
      [
        "ris",
        "o"
      ],
      [
        "Ġgos",
        "to"
      ],
      [
        "g",
        "ia"
      ],
      [
        "t",
        "en"
      ],
      [
        "Ġa",
        "u"
      ],
      [
        "ar",
        "go"
      ],
      [
        "Ġmui",
        "ta"
      ],
      [
        "pre",
        "en"
      ],
      [
        "Ġob",
        "s"
      ],
      [
        "Ġaca",
        "ba"
      ],
      [
        "Ġ",
        "X"
      ],
      [
        "Ġb",
        "us"
      ],
      [
        "Ġdi",
        "go"
      ],
      [
        "Ġexp",
        "li"
      ],
      [
        "e",
        "u"
      ],
      [
        "ta",
        "ntes"
      ],
      [
        "en",
        "e"
      ],
      [
        "Ġpor",
        "Ã©m"
      ],
      [
        "Ġ",
        "/"
      ],
      [
        "re",
        "ce"
      ],
      [
        "de",
        "nte"
      ],
      [
        "Ġpo",
        "nto"
      ],
      [
        "Ġpo",
        "der"
      ],
      [
        "Ġes",
        "c"
      ],
      [
        "ĠÃº",
        "ni"
      ],
      [
        "Ġocas",
        "iÃ£o"
      ],
      [
        "Ġde",
        "ntro"
      ],
      [
        "Ġg",
        "a"
      ],
      [
        "ĠH",
        "Ã¡"
      ],
      [
        "Ġra",
        "paz"
      ],
      [
        "ra",
        "l"
      ],
      [
        "Ġp",
        "i"
      ],
      [
        "ci",
        "Ãªncia"
      ],
      [
        "so",
        "lu"
      ],
      [
        "Ġsus",
        "p"
      ],
      [
        "b",
        "ro"
      ],
      [
        "Ġa",
        "nti"
      ],
      [
        "Ġre",
        "cu"
      ],
      [
        "ci",
        "l"
      ],
      [
        "ti",
        "tu"
      ],
      [
        "ĠC",
        "am"
      ],
      [
        "Ġsa",
        "iu"
      ],
      [
        "Ġres",
        "p"
      ],
      [
        "rou",
        "x"
      ],
      [
        "Ġliv",
        "ro"
      ],
      [
        "Ġcontinu",
        "ou"
      ],
      [
        "n",
        "ho"
      ],
      [
        "p",
        "io"
      ],
      [
        "Ġ",
        "uns"
      ],
      [
        "Ġm",
        "anhÃ£"
      ],
      [
        "Ã£",
        "e"
      ],
      [
        "Ġda",
        "va"
      ],
      [
        "fÃŃ",
        "cio"
      ],
      [
        "nta",
        "do"
      ],
      [
        "Ġtra",
        "ba"
      ],
      [
        "Ġnenh",
        "uma"
      ],
      [
        "n",
        "as"
      ],
      [
        "su",
        "la"
      ],
      [
        "Ġfor",
        "Ã§a"
      ],
      [
        "n",
        "ha"
      ],
      [
        "Ġa",
        "quela"
      ],
      [
        "cu",
        "l"
      ],
      [
        "Ġcont",
        "rÃ¡"
      ],
      [
        "rÃ¡",
        "s"
      ],
      [
        "r",
        "sula"
      ],
      [
        "ļ",
        "rsula"
      ],
      [
        "Ġs",
        "al"
      ],
      [
        "ta",
        "nto"
      ],
      [
        "ui",
        "u"
      ],
      [
        "ĠTal",
        "vez"
      ],
      [
        "d",
        "r"
      ],
      [
        "f",
        "eito"
      ],
      [
        "t",
        "r"
      ],
      [
        "Ġf",
        "ui"
      ],
      [
        "da",
        "mente"
      ],
      [
        "Ã©",
        "ria"
      ],
      [
        "ci",
        "e"
      ],
      [
        "ĠJ",
        "osÃ©"
      ],
      [
        "a",
        "is"
      ],
      [
        "Ġc",
        "an"
      ],
      [
        "Ġma",
        "ior"
      ],
      [
        "Ġqu",
        "is"
      ],
      [
        "cu",
        "lar"
      ],
      [
        "Ġso",
        "b"
      ],
      [
        "Ġres",
        "to"
      ],
      [
        "Ġde",
        "sa"
      ],
      [
        "nte",
        "i"
      ],
      [
        "ri",
        "r"
      ],
      [
        "v",
        "or"
      ],
      [
        "Ġa",
        "gra"
      ],
      [
        "Ġes",
        "co"
      ],
      [
        "lhe",
        "iro"
      ],
      [
        "ve",
        "nt"
      ],
      [
        "Ġac",
        "ei"
      ],
      [
        "Ġent",
        "rou"
      ],
      [
        "ĠF",
        "oi"
      ],
      [
        "Ġdeix",
        "ou"
      ],
      [
        "er",
        "ra"
      ],
      [
        "de",
        "ira"
      ],
      [
        "la",
        "Ã§Ã£o"
      ],
      [
        "Ġdi",
        "rei"
      ],
      [
        "Ġin",
        "di"
      ],
      [
        "ĠprÃ³p",
        "ria"
      ],
      [
        "Ġprin",
        "cÃŃ"
      ],
      [
        "in",
        "i"
      ],
      [
        "es",
        "sa"
      ],
      [
        "Ġv",
        "al"
      ],
      [
        "Ġou",
        "vir"
      ],
      [
        "ĠV",
        "irgÃŃlia"
      ],
      [
        "Ġpre",
        "se"
      ],
      [
        "c",
        "he"
      ],
      [
        "p",
        "ressa"
      ],
      [
        "ĠA",
        "nt"
      ],
      [
        "ix",
        "Ã£o"
      ],
      [
        "Ġa",
        "cu"
      ],
      [
        "Ġm",
        "os"
      ],
      [
        "ve",
        "is"
      ],
      [
        "Ġal",
        "mo"
      ],
      [
        "Ġfo",
        "ram"
      ],
      [
        "Ġqua",
        "tro"
      ],
      [
        "ĠCar",
        "mo"
      ],
      [
        "t",
        "ir"
      ],
      [
        "Ġs",
        "in"
      ],
      [
        "ĠA",
        "guiar"
      ],
      [
        "Ġha",
        "ver"
      ],
      [
        "Ġde",
        "les"
      ],
      [
        "ĠP",
        "ro"
      ],
      [
        "Ġpe",
        "que"
      ],
      [
        "nta",
        "de"
      ],
      [
        "ĠV",
        "i"
      ],
      [
        "Ġap",
        "er"
      ],
      [
        "Ġale",
        "g"
      ],
      [
        "v",
        "em"
      ],
      [
        "re",
        "za"
      ],
      [
        "Ġre",
        "c"
      ],
      [
        "Ġcon",
        "cl"
      ],
      [
        "Ġdes",
        "pe"
      ],
      [
        "Ġhome",
        "ns"
      ],
      [
        "Ġsab",
        "ia"
      ],
      [
        "p",
        "as"
      ],
      [
        "Ġde",
        "z"
      ],
      [
        "de",
        "m"
      ],
      [
        "âĢ",
        "Ŀ"
      ],
      [
        "ĠP",
        "or"
      ],
      [
        "ĠM",
        "aria"
      ],
      [
        "Ã´n",
        "ia"
      ],
      [
        "Ġn",
        "Ã³s"
      ],
      [
        "Ġes",
        "tra"
      ],
      [
        "Ġami",
        "gos"
      ],
      [
        "d",
        "Ãªncia"
      ],
      [
        "Ġ",
        "ÃŃ"
      ],
      [
        "Ġsa",
        "u"
      ],
      [
        "Ġan",
        "da"
      ],
      [
        "Ġnos",
        "so"
      ],
      [
        "Ġte",
        "ve"
      ],
      [
        "Ġinter",
        "rom"
      ],
      [
        "Ġ",
        "1"
      ],
      [
        "en",
        "s"
      ],
      [
        "so",
        "l"
      ],
      [
        "fi",
        "ca"
      ],
      [
        "ĠRu",
        "a"
      ],
      [
        "i",
        "z"
      ],
      [
        "que",
        "i"
      ],
      [
        "Ġj",
        "us"
      ],
      [
        "Ġne",
        "g"
      ],
      [
        "Ġa",
        "ba"
      ],
      [
        "Ġque",
        "r"
      ],
      [
        "or",
        "ba"
      ],
      [
        "ci",
        "os"
      ],
      [
        "ve",
        "ra"
      ],
      [
        "Ġin",
        "f"
      ],
      [
        "Ġen",
        "fim"
      ],
      [
        "Ġap",
        "ro"
      ],
      [
        "Ġbo",
        "ca"
      ],
      [
        "Ġche",
        "gou"
      ],
      [
        "pÃŃ",
        "tulo"
      ],
      [
        "la",
        "do"
      ],
      [
        "ce",
        "ra"
      ],
      [
        "us",
        "Ã£o"
      ],
      [
        "Ġent",
        "rar"
      ],
      [
        "Ġsegu",
        "inte"
      ],
      [
        "Ġnenh",
        "um"
      ],
      [
        "Ġacab",
        "ou"
      ],
      [
        "g",
        "io"
      ],
      [
        "Ġno",
        "va"
      ],
      [
        "Ġfi",
        "car"
      ],
      [
        "ĠlÃ¡",
        "g"
      ],
      [
        "C",
        "o"
      ],
      [
        "ci",
        "p"
      ],
      [
        "des",
        "se"
      ],
      [
        "g",
        "Ãªn"
      ],
      [
        "in",
        "cas"
      ],
      [
        "Ġmo",
        "Ã§o"
      ],
      [
        "Ġmos",
        "tra"
      ],
      [
        "m",
        "ira"
      ],
      [
        "Ġc",
        "ump"
      ],
      [
        "er",
        "o"
      ],
      [
        "es",
        "ar"
      ],
      [
        "Ġf",
        "ra"
      ],
      [
        "Ġb",
        "i"
      ],
      [
        "ĠÃ",
        "ļrsula"
      ],
      [
        "Ġfeli",
        "z"
      ],
      [
        "ĠprincÃŃ",
        "pio"
      ],
      [
        "g",
        "n"
      ],
      [
        "t",
        "ina"
      ],
      [
        "Ġca",
        "va"
      ],
      [
        "un",
        "i"
      ],
      [
        "ĠpÃ´",
        "de"
      ],
      [
        "Ġme",
        "ses"
      ],
      [
        "Ġvo",
        "ntade"
      ],
      [
        "Ġdu",
        "ra"
      ],
      [
        "Ġrefle",
        "x"
      ],
      [
        "R",
        "u"
      ],
      [
        "res",
        "se"
      ],
      [
        "Ġsa",
        "ÃŃ"
      ],
      [
        "Ġap",
        "re"
      ],
      [
        "ĠCo",
        "m"
      ],
      [
        "Ġouvi",
        "u"
      ],
      [
        "Ġjan",
        "ela"
      ],
      [
        "Ã©",
        "rio"
      ],
      [
        "Ġca",
        "bo"
      ],
      [
        "Ġcont",
        "ra"
      ],
      [
        "ĠB",
        "orba"
      ],
      [
        "ĠCo",
        "mo"
      ],
      [
        "comp",
        "anh"
      ],
      [
        "Ġa",
        "quele"
      ],
      [
        "di",
        "v"
      ],
      [
        "ar",
        "d"
      ],
      [
        "ar",
        "ga"
      ],
      [
        "co",
        "nte"
      ],
      [
        "di",
        "da"
      ],
      [
        "Ġsenti",
        "mento"
      ],
      [
        "Ġirm",
        "Ã£"
      ],
      [
        "tua",
        "Ã§Ã£o"
      ],
      [
        "p",
        "r"
      ],
      [
        "ĠN",
        "em"
      ],
      [
        "Ġdes",
        "te"
      ],
      [
        "Ġat",
        "en"
      ],
      [
        "Ġins",
        "tante"
      ],
      [
        "Ġde",
        "i"
      ],
      [
        "Ġde",
        "pressa"
      ],
      [
        "Ġes",
        "tou"
      ],
      [
        "ĠT",
        "inha"
      ],
      [
        "rim",
        "as"
      ],
      [
        "ĠAl",
        "ves"
      ],
      [
        "ĠcontrÃ¡",
        "rio"
      ],
      [
        "Ġa",
        "do"
      ],
      [
        "ca",
        "do"
      ],
      [
        "Ġb",
        "e"
      ],
      [
        "Ġdi",
        "fere"
      ],
      [
        "Ġca",
        "da"
      ],
      [
        "Ġca",
        "usa"
      ],
      [
        "Ġcas",
        "ar"
      ],
      [
        "Ġo",
        "ra"
      ],
      [
        "ĠE",
        "le"
      ],
      [
        "cia",
        "l"
      ],
      [
        "Ġl",
        "er"
      ],
      [
        "vo",
        "l"
      ],
      [
        "Ġfal",
        "ou"
      ],
      [
        "du",
        "z"
      ],
      [
        "Ġins",
        "tantes"
      ],
      [
        "c",
        "Ã¡"
      ],
      [
        "l",
        "Ã³"
      ],
      [
        "Ġv",
        "es"
      ],
      [
        "al",
        "gum"
      ],
      [
        "Ġcon",
        "vi"
      ],
      [
        "tu",
        "reza"
      ],
      [
        "Ġpro",
        "p"
      ],
      [
        "Ġpas",
        "se"
      ],
      [
        "Ġtra",
        "zia"
      ],
      [
        "Ru",
        "biÃ£o"
      ],
      [
        "g",
        "an"
      ],
      [
        "p",
        "lo"
      ],
      [
        "x",
        "a"
      ],
      [
        "Ġ",
        "("
      ],
      [
        "Ġ",
        "Ã¡"
      ],
      [
        "Ġse",
        "ja"
      ],
      [
        "Ġre",
        "co"
      ],
      [
        "gu",
        "ei"
      ],
      [
        "ti",
        "do"
      ],
      [
        "tu",
        "do"
      ],
      [
        "Ġqu",
        "ar"
      ],
      [
        "Ġpare",
        "ceu"
      ],
      [
        "con",
        "he"
      ],
      [
        "Ġcor",
        "re"
      ],
      [
        "ĠNa",
        "tividade"
      ],
      [
        "p",
        "ou"
      ],
      [
        "Ġde",
        "ve"
      ],
      [
        "de",
        "i"
      ],
      [
        "pe",
        "u"
      ],
      [
        "ch",
        "ior"
      ],
      [
        "ĠEste",
        "vÃ£o"
      ],
      [
        "Ġlu",
        "gar"
      ],
      [
        "el",
        "chior"
      ],
      [
        "Ġa",
        "no"
      ],
      [
        "Ġv",
        "Ã¡"
      ],
      [
        "Ġca",
        "pÃŃtulo"
      ],
      [
        "ĠT",
        "ambÃ©m"
      ],
      [
        "Ġar",
        "ran"
      ],
      [
        "Ġia",
        "m"
      ],
      [
        "Ġgran",
        "des"
      ],
      [
        "e",
        "ram"
      ],
      [
        "in",
        "e"
      ],
      [
        "Ġes",
        "cu"
      ],
      [
        "tava",
        "m"
      ],
      [
        "Ãº",
        "b"
      ],
      [
        "Ġdiz",
        "endo"
      ],
      [
        "Es",
        "tÃ¡cio"
      ],
      [
        "Ġten",
        "ho"
      ],
      [
        "Ġparti",
        "cular"
      ],
      [
        "ĠpolÃŃ",
        "tica"
      ],
      [
        "ĠnotÃŃ",
        "cia"
      ],
      [
        "i",
        "tas"
      ],
      [
        "is",
        "ta"
      ],
      [
        "Ġf",
        "ran"
      ],
      [
        "ĠT",
        "o"
      ],
      [
        "Ġdese",
        "jo"
      ],
      [
        "P",
        "a"
      ],
      [
        "be",
        "u"
      ],
      [
        "Ãªn",
        "cias"
      ],
      [
        "Ġdia",
        "nte"
      ],
      [
        "Ġvol",
        "ta"
      ],
      [
        "Ġpass",
        "ou"
      ],
      [
        "Ġvia",
        "gem"
      ],
      [
        "Ġtran",
        "s"
      ],
      [
        "i",
        "to"
      ],
      [
        "t",
        "Ã³"
      ],
      [
        "gu",
        "ra"
      ],
      [
        "ci",
        "osa"
      ],
      [
        "res",
        "ce"
      ],
      [
        "ĠP",
        "er"
      ],
      [
        "ran",
        "Ã§as"
      ],
      [
        "Ġh",
        "um"
      ],
      [
        "II",
        "I"
      ],
      [
        "im",
        "os"
      ],
      [
        "te",
        "u"
      ],
      [
        "Ġca",
        "ra"
      ],
      [
        "Ġres",
        "posta"
      ],
      [
        "Ġexp",
        "lica"
      ],
      [
        "Ġcost",
        "ume"
      ],
      [
        "g",
        "ando"
      ],
      [
        "Ġm",
        "em"
      ],
      [
        "Ġnatural",
        "mente"
      ],
      [
        "Ġa",
        "ÃŃ"
      ],
      [
        "ti",
        "co"
      ],
      [
        "ĠR",
        "ita"
      ],
      [
        "ĠPa",
        "ra"
      ],
      [
        "Ġgra",
        "Ã§a"
      ],
      [
        "Ġcu",
        "r"
      ],
      [
        "g",
        "ir"
      ],
      [
        "Ġm",
        "in"
      ],
      [
        "Ġes",
        "tas"
      ],
      [
        "Ġda",
        "quela"
      ],
      [
        "ca",
        "Ã§Ã£o"
      ],
      [
        "ci",
        "mento"
      ],
      [
        "ĠA",
        "gora"
      ],
      [
        "Ġac",
        "or"
      ],
      [
        "Ġar",
        "re"
      ],
      [
        "Ġob",
        "ri"
      ],
      [
        "Ġpos",
        "so"
      ],
      [
        "Ġqual",
        "quer"
      ],
      [
        "Ġcin",
        "co"
      ],
      [
        "c",
        "es"
      ],
      [
        "c",
        "ando"
      ],
      [
        "Ġ",
        "lhes"
      ],
      [
        "la",
        "n"
      ],
      [
        "Ġch",
        "Ã¡"
      ],
      [
        "Ġirm",
        "Ã£o"
      ],
      [
        "ĠVo",
        "cÃª"
      ],
      [
        "J",
        "orge"
      ],
      [
        "a",
        "la"
      ],
      [
        "f",
        "ei"
      ],
      [
        "r",
        "indo"
      ],
      [
        "ra",
        "da"
      ],
      [
        "ĠE",
        "n"
      ],
      [
        "am",
        "Ã£e"
      ],
      [
        "di",
        "o"
      ],
      [
        "ui",
        "to"
      ],
      [
        "Ġmui",
        "tas"
      ],
      [
        "ĠQu",
        "incas"
      ],
      [
        "Ġpassa",
        "do"
      ],
      [
        "N",
        "a"
      ],
      [
        "t",
        "Ã¢ncia"
      ],
      [
        "Ġt",
        "re"
      ],
      [
        "or",
        "re"
      ],
      [
        "Ã¡",
        "ria"
      ],
      [
        "Ġb",
        "an"
      ],
      [
        "ir",
        "c"
      ],
      [
        "ĠÃ",
        "³"
      ],
      [
        "nta",
        "da"
      ],
      [
        "Ġsi",
        "tuaÃ§Ã£o"
      ],
      [
        "Ġimp",
        "or"
      ],
      [
        "Ġconcl",
        "uiu"
      ],
      [
        "Ġc",
        "Ã©u"
      ],
      [
        "Ġes",
        "ca"
      ],
      [
        "al",
        "idade"
      ],
      [
        "Ġi",
        "gu"
      ],
      [
        "ĠS",
        "im"
      ],
      [
        "su",
        "nto"
      ],
      [
        "Ġdeix",
        "ar"
      ],
      [
        "Ġpass",
        "ar"
      ],
      [
        "Ġcre",
        "r"
      ],
      [
        "Ġfeli",
        "cidade"
      ],
      [
        "c",
        "en"
      ],
      [
        "in",
        "iÃ£o"
      ],
      [
        "le",
        "i"
      ],
      [
        "Ġpa",
        "ixÃ£o"
      ],
      [
        "ira",
        "mente"
      ],
      [
        "Ġpas",
        "so"
      ],
      [
        "Ġta",
        "is"
      ],
      [
        "Ġcer",
        "ta"
      ],
      [
        "ĠidÃ©",
        "ias"
      ],
      [
        "Ġconse",
        "lheiro"
      ],
      [
        "ĠlÃ¡g",
        "rimas"
      ],
      [
        "c",
        "lu"
      ],
      [
        "g",
        "na"
      ],
      [
        "p",
        "li"
      ],
      [
        "Ġ",
        "rom"
      ],
      [
        "Ġe",
        "las"
      ],
      [
        "in",
        "ar"
      ],
      [
        "Ġes",
        "p"
      ],
      [
        "Ġve",
        "lha"
      ],
      [
        "Ġen",
        "cont"
      ],
      [
        "Ġtinha",
        "m"
      ],
      [
        "Ã´",
        "s"
      ],
      [
        "Ġti",
        "vesse"
      ],
      [
        "Ġad",
        "mira"
      ],
      [
        "irc",
        "uns"
      ],
      [
        "c",
        "ei"
      ],
      [
        "ĠS",
        "u"
      ],
      [
        "ĠEs",
        "ta"
      ],
      [
        "Es",
        "te"
      ],
      [
        "ĠÃºlt",
        "ima"
      ],
      [
        "Ġt",
        "ri"
      ],
      [
        "ĠT",
        "udo"
      ],
      [
        "Ġen",
        "quanto"
      ],
      [
        "ĠQu",
        "em"
      ],
      [
        "bo",
        "ra"
      ],
      [
        "Ġpos",
        "sÃŃvel"
      ],
      [
        "Ġami",
        "ga"
      ],
      [
        "Ġfu",
        "tu"
      ],
      [
        "tiva",
        "mente"
      ],
      [
        "ĠEnt",
        "Ã£o"
      ],
      [
        "b",
        "as"
      ],
      [
        "is",
        "sÃ£o"
      ],
      [
        "Ġf",
        "re"
      ],
      [
        "Ġme",
        "ia"
      ],
      [
        "Ġfi",
        "lhos"
      ],
      [
        "Ġexp",
        "ressÃ£o"
      ],
      [
        "Ġcam",
        "inho"
      ],
      [
        "Ġsent",
        "ia"
      ],
      [
        "da",
        "do"
      ],
      [
        "co",
        "b"
      ],
      [
        "Ġna",
        "tureza"
      ],
      [
        "di",
        "ta"
      ],
      [
        "inh",
        "os"
      ],
      [
        "XX",
        "X"
      ],
      [
        "ntem",
        "p"
      ],
      [
        "Ã©di",
        "co"
      ],
      [
        "gÃªn",
        "ia"
      ],
      [
        "Ġdura",
        "nte"
      ],
      [
        "is",
        "a"
      ],
      [
        "Ġda",
        "ÃŃ"
      ],
      [
        "Ġj",
        "ard"
      ],
      [
        "Ġach",
        "ei"
      ],
      [
        "Ġva",
        "le"
      ],
      [
        "Ġsenti",
        "u"
      ],
      [
        "Ġconf",
        "ess"
      ],
      [
        "Ġcons",
        "igo"
      ],
      [
        "Ġima",
        "gina"
      ],
      [
        "Ġnecess",
        "idade"
      ],
      [
        "Ġneg",
        "Ã³"
      ],
      [
        "Ġa",
        "div"
      ],
      [
        "Ġp",
        "la"
      ],
      [
        "Ġque",
        "ro"
      ],
      [
        "Ġmo",
        "tivo"
      ],
      [
        "Ġex",
        "cla"
      ],
      [
        "Ġespe",
        "ranÃ§a"
      ],
      [
        "Ġfala",
        "va"
      ],
      [
        "Ġacha",
        "va"
      ],
      [
        "i",
        "da"
      ],
      [
        "l",
        "Ã³ria"
      ],
      [
        "Ġf",
        "in"
      ],
      [
        "Ġda",
        "quele"
      ],
      [
        "Ġre",
        "cor"
      ],
      [
        "tu",
        "na"
      ],
      [
        "ĠM",
        "a"
      ],
      [
        "ĠEs",
        "co"
      ],
      [
        "Ġlei",
        "tor"
      ],
      [
        "Ġ1",
        "8"
      ],
      [
        "D",
        "e"
      ],
      [
        "d",
        "isse"
      ],
      [
        "Ġa",
        "fe"
      ],
      [
        "de",
        "z"
      ],
      [
        "ĠC",
        "re"
      ],
      [
        "Ġin",
        "cl"
      ],
      [
        "Ġpe",
        "dir"
      ],
      [
        "Ġh",
        "ist"
      ],
      [
        "pos",
        "iÃ§Ã£o"
      ],
      [
        "Ġd",
        "Ã¡"
      ],
      [
        "ou",
        "tra"
      ],
      [
        "la",
        "va"
      ],
      [
        "im",
        "as"
      ],
      [
        "Ġre",
        "tra"
      ],
      [
        "Ġna",
        "quela"
      ],
      [
        "Ġdes",
        "t"
      ],
      [
        "ga",
        "da"
      ],
      [
        "Ġpro",
        "f"
      ],
      [
        "ĠDe",
        "pois"
      ],
      [
        "Ġaf",
        "eiÃ§Ã£o"
      ],
      [
        "b",
        "ia"
      ],
      [
        "e",
        "ta"
      ],
      [
        "t",
        "inha"
      ],
      [
        "Ġc",
        "lar"
      ],
      [
        "se",
        "i"
      ],
      [
        "se",
        "nti"
      ],
      [
        "Ġt",
        "roux"
      ],
      [
        "Ġre",
        "la"
      ],
      [
        "Ġcon",
        "fia"
      ],
      [
        "cas",
        "a"
      ],
      [
        "vel",
        "mente"
      ],
      [
        "ĠPa",
        "lha"
      ],
      [
        "Ġvol",
        "tou"
      ],
      [
        "Ġlon",
        "ga"
      ],
      [
        "Ġprin",
        "cip"
      ],
      [
        "dr",
        "inha"
      ],
      [
        "E",
        "ra"
      ],
      [
        "c",
        "Ã³p"
      ],
      [
        "n",
        "dia"
      ],
      [
        "u",
        "r"
      ],
      [
        "Ġa",
        "tra"
      ],
      [
        "in",
        "ou"
      ],
      [
        "Ġv",
        "ou"
      ],
      [
        "al",
        "i"
      ],
      [
        "al",
        "Ã©ria"
      ],
      [
        "Ġas",
        "s"
      ],
      [
        "Ġas",
        "sunto"
      ],
      [
        "Ġal",
        "Ã©m"
      ],
      [
        "ma",
        "va"
      ],
      [
        "ĠEs",
        "tÃ¡"
      ],
      [
        "Ġen",
        "ca"
      ],
      [
        "Ġpro",
        "cu"
      ],
      [
        "Ġprime",
        "iros"
      ],
      [
        "Ġdeix",
        "a"
      ],
      [
        "Ġvis",
        "ta"
      ],
      [
        "c",
        "endo"
      ],
      [
        "Ġco",
        "nte"
      ],
      [
        "ĠE",
        "la"
      ],
      [
        "Ġem",
        "bora"
      ],
      [
        "Ġqu",
        "Ãª"
      ],
      [
        "Ġi",
        "dade"
      ],
      [
        "endo",
        "nÃ§a"
      ],
      [
        "Ġach",
        "ar"
      ],
      [
        "Ġest",
        "en"
      ],
      [
        "gue",
        "u"
      ],
      [
        "Ġop",
        "iniÃ£o"
      ],
      [
        "cÃ³p",
        "io"
      ],
      [
        "Ġc",
        "os"
      ],
      [
        "Ġm",
        "Ã©dico"
      ],
      [
        "nt",
        "ando"
      ],
      [
        "Ġn",
        "ar"
      ],
      [
        "Ġam",
        "ar"
      ],
      [
        "ĠR",
        "io"
      ],
      [
        "Ġcar",
        "ro"
      ],
      [
        "ter",
        "na"
      ],
      [
        "ch",
        "ou"
      ],
      [
        "ĠAs",
        "sim"
      ],
      [
        "Ġquar",
        "to"
      ],
      [
        "Ġe",
        "feito"
      ],
      [
        "Ġc",
        "us"
      ],
      [
        "va",
        "mos"
      ],
      [
        "ĠC",
        "as"
      ],
      [
        "pa",
        "i"
      ],
      [
        "Ġpe",
        "diu"
      ],
      [
        "Ġmui",
        "tos"
      ],
      [
        "cer",
        "to"
      ],
      [
        "Ġcar",
        "tas"
      ],
      [
        "Ġinte",
        "n"
      ],
      [
        "Ġest",
        "re"
      ],
      [
        "Ġsor",
        "riu"
      ],
      [
        "Ġtorn",
        "ou"
      ],
      [
        "Ġaleg",
        "ria"
      ],
      [
        "r",
        "s"
      ],
      [
        "Ġco",
        "nta"
      ],
      [
        "Ġdes",
        "ta"
      ],
      [
        "Ġso",
        "mb"
      ],
      [
        "ĠSa",
        "ntos"
      ],
      [
        "qÃ¼",
        "i"
      ],
      [
        "Ġacu",
        "diu"
      ],
      [
        "N",
        "o"
      ],
      [
        "r",
        "mu"
      ],
      [
        "se",
        "n"
      ],
      [
        "Qu",
        "ando"
      ],
      [
        "Ġmes",
        "a"
      ],
      [
        "tar",
        "ia"
      ],
      [
        "Ġti",
        "ve"
      ],
      [
        "Ġlemb",
        "ra"
      ],
      [
        "Ġdor",
        "m"
      ],
      [
        "Ġbra",
        "Ã§os"
      ],
      [
        "tem",
        "po"
      ],
      [
        "Ġbei",
        "j"
      ],
      [
        "in",
        "Ã¡rio"
      ],
      [
        "lh",
        "ar"
      ],
      [
        "an",
        "as"
      ],
      [
        "Ġb",
        "ri"
      ],
      [
        "res",
        "po"
      ],
      [
        "Ġpo",
        "bre"
      ],
      [
        "Ġali",
        "Ã¡s"
      ],
      [
        "ĠÃºlt",
        "imo"
      ],
      [
        "Ã©s",
        "pera"
      ],
      [
        "ĠAnt",
        "Ã´nia"
      ],
      [
        "a",
        "o"
      ],
      [
        "p",
        "rime"
      ],
      [
        "Ġd",
        "ou"
      ],
      [
        "Ġc",
        "idade"
      ],
      [
        "er",
        "ia"
      ],
      [
        "Ġf",
        "lor"
      ],
      [
        "Ġme",
        "do"
      ],
      [
        "pe",
        "c"
      ],
      [
        "mo",
        "ra"
      ],
      [
        "ras",
        "se"
      ],
      [
        "Ġex",
        "em"
      ],
      [
        "ĠV",
        "e"
      ],
      [
        "Ġter",
        "ra"
      ],
      [
        "Ġgra",
        "ve"
      ],
      [
        "Ġjard",
        "im"
      ],
      [
        "g",
        "ens"
      ],
      [
        "s",
        "ando"
      ],
      [
        "v",
        "Ã¡"
      ],
      [
        "Ġc",
        "ima"
      ],
      [
        "ĠM",
        "elchior"
      ],
      [
        "Ġpro",
        "va"
      ],
      [
        "ĠL",
        "o"
      ],
      [
        "Ġestava",
        "m"
      ],
      [
        "Ġpos",
        "to"
      ],
      [
        "Ġconse",
        "r"
      ],
      [
        "ser",
        "va"
      ],
      [
        "Ġmem",
        "Ã³ria"
      ],
      [
        "H",
        "elena"
      ],
      [
        "Ġd",
        "Ãº"
      ],
      [
        "Ġc",
        "ircuns"
      ],
      [
        "Ġdis",
        "so"
      ],
      [
        "Ġsa",
        "tis"
      ],
      [
        "Ġvi",
        "nte"
      ],
      [
        "cu",
        "r"
      ],
      [
        "Ġam",
        "anhÃ£"
      ],
      [
        "Ġap",
        "esar"
      ],
      [
        "pos",
        "sÃŃvel"
      ],
      [
        "e",
        "dade"
      ],
      [
        "o",
        "lhos"
      ],
      [
        "v",
        "is"
      ],
      [
        "Ġ",
        "ris"
      ],
      [
        "Ġa",
        "companh"
      ],
      [
        "Ġm",
        "Ã¡"
      ],
      [
        "Ġt",
        "ÃŃ"
      ],
      [
        "Ġt",
        "ira"
      ],
      [
        "me",
        "m"
      ],
      [
        "ĠC",
        "Ã©u"
      ],
      [
        "Ġca",
        "ir"
      ],
      [
        "Ġin",
        "ve"
      ],
      [
        "Ġolh",
        "ou"
      ],
      [
        "bi",
        "lidade"
      ],
      [
        "Ġpou",
        "cos"
      ],
      [
        "Ġab",
        "orre"
      ],
      [
        "Ġaf",
        "ir"
      ],
      [
        "Ġaf",
        "li"
      ],
      [
        "Ġch",
        "Ã£o"
      ],
      [
        "Ġcam",
        "a"
      ],
      [
        "Ġcria",
        "nÃ§a"
      ],
      [
        "Ġfica",
        "va"
      ],
      [
        "Ġale",
        "gre"
      ],
      [
        "Ġagra",
        "de"
      ],
      [
        "Ġinterrom",
        "peu"
      ],
      [
        "d",
        "Ã¡"
      ],
      [
        "i",
        "ras"
      ],
      [
        "z",
        "o"
      ],
      [
        "Ġc",
        "ho"
      ],
      [
        "Ġco",
        "ntemp"
      ],
      [
        "in",
        "s"
      ],
      [
        "Ġes",
        "tu"
      ],
      [
        "Ġda",
        "qui"
      ],
      [
        "em",
        "os"
      ],
      [
        "co",
        "ns"
      ],
      [
        "Ġma",
        "drinha"
      ],
      [
        "di",
        "Ã§Ã£o"
      ],
      [
        "ĠD",
        "a"
      ],
      [
        "tas",
        "se"
      ],
      [
        "Ġpen",
        "a"
      ],
      [
        "Ġce",
        "do"
      ],
      [
        "tis",
        "ta"
      ],
      [
        "t",
        "ri"
      ],
      [
        "pa",
        "raÃ§Ã£o"
      ],
      [
        "Ġi",
        "nt"
      ],
      [
        "Ġex",
        "a"
      ],
      [
        "ĠJ",
        "us"
      ],
      [
        "Ġbo",
        "n"
      ],
      [
        "Ġalgu",
        "Ã©m"
      ],
      [
        "ĠEu",
        "gÃªnia"
      ],
      [
        "Ġlu",
        "z"
      ],
      [
        "Ġtraba",
        "lho"
      ],
      [
        "Ġsob",
        "r"
      ],
      [
        "er",
        "i"
      ],
      [
        "Ġf",
        "ar"
      ],
      [
        "Ġda",
        "li"
      ],
      [
        "Ã§a",
        "va"
      ],
      [
        "Ġso",
        "li"
      ],
      [
        "Ġso",
        "mente"
      ],
      [
        "Ġche",
        "ga"
      ],
      [
        "m",
        "an"
      ],
      [
        "r",
        "Ã©"
      ],
      [
        "Ġd",
        "ir"
      ],
      [
        "Ġa",
        "mo"
      ],
      [
        "Ġa",
        "conte"
      ],
      [
        "es",
        "pe"
      ],
      [
        "Ġs",
        "an"
      ],
      [
        "ta",
        "da"
      ],
      [
        "ta",
        "Ã§Ã£o"
      ],
      [
        "ĠS",
        "r"
      ],
      [
        "Ġsu",
        "p"
      ],
      [
        "Ġcor",
        "po"
      ],
      [
        "pÃ©",
        "cie"
      ],
      [
        "Ġgu",
        "ar"
      ],
      [
        "Ġmis",
        "sa"
      ],
      [
        "n",
        "di"
      ],
      [
        "w",
        "al"
      ],
      [
        "Ġde",
        "las"
      ],
      [
        "Ġt",
        "ia"
      ],
      [
        "Ġf",
        "ei"
      ],
      [
        "Ġf",
        "aria"
      ],
      [
        "lhe",
        "te"
      ],
      [
        "Ġdi",
        "ga"
      ],
      [
        "Ġbo",
        "ni"
      ],
      [
        "Ġaca",
        "bar"
      ],
      [
        "Ġinte",
        "resse"
      ],
      [
        "Ġpra",
        "zer"
      ],
      [
        "ĠEsco",
        "bar"
      ],
      [
        "wal",
        "d"
      ],
      [
        "Ġa",
        "to"
      ],
      [
        "as",
        "o"
      ],
      [
        "Ġcom",
        "preen"
      ],
      [
        "Ġre",
        "solu"
      ],
      [
        "Ġb",
        "ela"
      ],
      [
        "res",
        "s"
      ],
      [
        "Ġca",
        "paz"
      ],
      [
        "Ġto",
        "m"
      ],
      [
        "Ġmor",
        "rer"
      ],
      [
        "inh",
        "eiro"
      ],
      [
        "Ġpass",
        "os"
      ],
      [
        "ĠchÃ¡",
        "cara"
      ],
      [
        "b",
        "ri"
      ],
      [
        "c",
        "esse"
      ],
      [
        "f",
        "ar"
      ],
      [
        "r",
        "in"
      ],
      [
        "re",
        "mos"
      ],
      [
        "is",
        "mo"
      ],
      [
        "Ġf",
        "ina"
      ],
      [
        "Ġf",
        "eito"
      ],
      [
        "Ġcon",
        "su"
      ],
      [
        "Ġfi",
        "gura"
      ],
      [
        "cu",
        "los"
      ],
      [
        "Ġsen",
        "sa"
      ],
      [
        "ĠB",
        "o"
      ],
      [
        "asse",
        "m"
      ],
      [
        "Ġvis",
        "ita"
      ],
      [
        "Ġsenti",
        "mentos"
      ],
      [
        "ĠSa",
        "nta"
      ],
      [
        "Ġcons",
        "ciÃªncia"
      ],
      [
        "ĠCre",
        "io"
      ],
      [
        "qu",
        "ando"
      ],
      [
        "âĢ",
        "ľ"
      ],
      [
        "Ġca",
        "la"
      ],
      [
        "Ġla",
        "n"
      ],
      [
        "ĠpÃ©",
        "s"
      ],
      [
        "Ã©di",
        "o"
      ],
      [
        "Ġsau",
        "dades"
      ],
      [
        "ala",
        "u"
      ],
      [
        "\"",
        "."
      ],
      [
        "a",
        "tro"
      ],
      [
        "g",
        "iu"
      ],
      [
        "Ġc",
        "ru"
      ],
      [
        "Ġm",
        "inhas"
      ],
      [
        "Ġn",
        "ele"
      ],
      [
        "Ġt",
        "io"
      ],
      [
        "Ġt",
        "esta"
      ],
      [
        "de",
        "ra"
      ],
      [
        "Ġpa",
        "de"
      ],
      [
        "Ġent",
        "ra"
      ],
      [
        "Ġcont",
        "ar"
      ],
      [
        "Ġmen",
        "ina"
      ],
      [
        "je",
        "to"
      ],
      [
        "ĠPo",
        "de"
      ],
      [
        "ĠEnt",
        "re"
      ],
      [
        "Ġconversa",
        "Ã§Ã£o"
      ],
      [
        "c",
        "Ã³"
      ],
      [
        "Ġes",
        "pÃ©cie"
      ],
      [
        "te",
        "za"
      ],
      [
        "Ġb",
        "re"
      ],
      [
        "Ġpodia",
        "m"
      ],
      [
        "nh",
        "os"
      ],
      [
        "Ġalmo",
        "Ã§o"
      ],
      [
        "Ġreflex",
        "Ã£o"
      ],
      [
        "Ġconsu",
        "l"
      ],
      [
        "V",
        "I"
      ],
      [
        "a",
        "tista"
      ],
      [
        "l",
        "Ã©"
      ],
      [
        "x",
        "o"
      ],
      [
        "Ġde",
        "r"
      ],
      [
        "que",
        "les"
      ],
      [
        "Ġv",
        "Ã©spera"
      ],
      [
        "pa",
        "lav"
      ],
      [
        "Ġin",
        "g"
      ],
      [
        "Ġper",
        "der"
      ],
      [
        "Ġter",
        "ia"
      ],
      [
        "ter",
        "n"
      ],
      [
        "Ġsegu",
        "nda"
      ],
      [
        "Ġrepe",
        "tiu"
      ],
      [
        "Ġhou",
        "vesse"
      ],
      [
        "ĠÃºni",
        "ca"
      ],
      [
        "Ġfutu",
        "ro"
      ],
      [
        "i",
        "dades"
      ],
      [
        "se",
        "gu"
      ],
      [
        "Ġdes",
        "p"
      ],
      [
        "ĠO",
        "h"
      ],
      [
        "Ġfa",
        "vor"
      ],
      [
        "Ġac",
        "resce"
      ],
      [
        "be",
        "de"
      ],
      [
        "Ġsen",
        "Ã£o"
      ],
      [
        "Ġmu",
        "da"
      ],
      [
        "Ġob",
        "ra"
      ],
      [
        "fer",
        "iu"
      ],
      [
        "Ġrece",
        "beu"
      ],
      [
        "Ġcome",
        "Ã§ou"
      ],
      [
        "Ġresp",
        "eito"
      ],
      [
        "Ġprese",
        "nte"
      ],
      [
        "Ġa",
        "po"
      ],
      [
        "Ġou",
        "via"
      ],
      [
        "li",
        "co"
      ],
      [
        "ho",
        "ras"
      ],
      [
        "Ġdi",
        "to"
      ],
      [
        "ĠS",
        "Ã³"
      ],
      [
        "dia",
        "nte"
      ],
      [
        "Ġpro",
        "me"
      ],
      [
        "Ġpr",
        "ima"
      ],
      [
        "Ġfal",
        "ta"
      ],
      [
        "ist",
        "Ã©rio"
      ],
      [
        "ĠOs",
        "wald"
      ],
      [
        "Ġescre",
        "ver"
      ],
      [
        "Ġ",
        "riso"
      ],
      [
        "Ġa",
        "nter"
      ],
      [
        "Ġo",
        "ntem"
      ],
      [
        "Ã©",
        "r"
      ],
      [
        "Ġum",
        "as"
      ],
      [
        "Ã³",
        "si"
      ],
      [
        "Ġcon",
        "ver"
      ],
      [
        "Ġdes",
        "se"
      ],
      [
        "Ġvi",
        "z"
      ],
      [
        "vi",
        "do"
      ],
      [
        "ĠM",
        "endonÃ§a"
      ],
      [
        "cu",
        "pa"
      ],
      [
        "na",
        "da"
      ],
      [
        "Ġex",
        "ce"
      ],
      [
        "lha",
        "nte"
      ],
      [
        "pos",
        "to"
      ],
      [
        "ĠPa",
        "rece"
      ],
      [
        "Ġcu",
        "rios"
      ],
      [
        "Ġliv",
        "ros"
      ],
      [
        "Ġcan",
        "sa"
      ],
      [
        "Ġaten",
        "Ã§Ã£o"
      ],
      [
        "M",
        "as"
      ],
      [
        "a",
        "b"
      ],
      [
        "c",
        "em"
      ],
      [
        "Ġo",
        "mb"
      ],
      [
        "Ġf",
        "undo"
      ],
      [
        "or",
        "te"
      ],
      [
        "Ġs",
        "Ã©"
      ],
      [
        "Ġdo",
        "min"
      ],
      [
        "gu",
        "ns"
      ],
      [
        "Ġmo",
        "ral"
      ],
      [
        "Ġac",
        "er"
      ],
      [
        "ĠV",
        "alÃ©ria"
      ],
      [
        "Ãº",
        "m"
      ],
      [
        "Ġat",
        "rÃ¡s"
      ],
      [
        "mb",
        "arga"
      ],
      [
        "Ġsegu",
        "ndo"
      ],
      [
        "Ġcabe",
        "los"
      ],
      [
        "Ġgo",
        "ver"
      ],
      [
        "Ġhist",
        "Ã³ria"
      ],
      [
        "mbarga",
        "dor"
      ],
      [
        "G",
        "uiomar"
      ],
      [
        "a",
        "inda"
      ],
      [
        "e",
        "las"
      ],
      [
        "p",
        "ira"
      ],
      [
        "s",
        "se"
      ],
      [
        "u",
        "dia"
      ],
      [
        "Ġa",
        "us"
      ],
      [
        "re",
        "ira"
      ],
      [
        "Ġn",
        "u"
      ],
      [
        "ro",
        "pa"
      ],
      [
        "Ġno",
        "vo"
      ],
      [
        "Ãª",
        "m"
      ],
      [
        "Ġca",
        "deira"
      ],
      [
        "cia",
        "m"
      ],
      [
        "Ġj",
        "or"
      ],
      [
        "ran",
        "de"
      ],
      [
        "Ġle",
        "tra"
      ],
      [
        "ĠT",
        "e"
      ],
      [
        "Ġpro",
        "v"
      ],
      [
        "Ġab",
        "riu"
      ],
      [
        "Ġfor",
        "te"
      ],
      [
        "Ġba",
        "ix"
      ],
      [
        "Ġpu",
        "desse"
      ],
      [
        "Ġlemb",
        "rou"
      ],
      [
        "Ġsor",
        "rindo"
      ],
      [
        "Ġtran",
        "qÃ¼i"
      ],
      [
        "Ġsou",
        "be"
      ],
      [
        "Ġhou",
        "ve"
      ],
      [
        "Ġbi",
        "lhete"
      ],
      [
        "d",
        "ras"
      ],
      [
        "j",
        "us"
      ],
      [
        "m",
        "inha"
      ],
      [
        "m",
        "uito"
      ],
      [
        "Ġm",
        "ost"
      ],
      [
        "ro",
        "nte"
      ],
      [
        "im",
        "i"
      ],
      [
        "an",
        "Ã§a"
      ],
      [
        "Ġme",
        "nt"
      ],
      [
        "ti",
        "da"
      ],
      [
        "ce",
        "la"
      ],
      [
        "Ġpe",
        "dia"
      ],
      [
        "Ġle",
        "u"
      ],
      [
        "Ġac",
        "aso"
      ],
      [
        "Ġsu",
        "per"
      ],
      [
        "Ġh",
        "es"
      ],
      [
        "ver",
        "dade"
      ],
      [
        "ĠV",
        "amos"
      ],
      [
        "ĠPa",
        "dre"
      ],
      [
        "ses",
        "se"
      ],
      [
        "Ġlon",
        "go"
      ],
      [
        "Ġsor",
        "riso"
      ],
      [
        "Ġr",
        "indo"
      ],
      [
        "ĠÃºni",
        "co"
      ],
      [
        "Ġbon",
        "ita"
      ],
      [
        "A",
        "s"
      ],
      [
        "S",
        "e"
      ],
      [
        "ro",
        "n"
      ],
      [
        "ca",
        "mente"
      ],
      [
        "Ġb",
        "or"
      ],
      [
        "lo",
        "go"
      ],
      [
        "ĠD",
        "o"
      ],
      [
        "ĠD",
        "ei"
      ],
      [
        "Ġam",
        "bi"
      ],
      [
        "Ġespe",
        "ranÃ§as"
      ],
      [
        "Ã¢n",
        "cias"
      ],
      [
        "fÃŃ",
        "cil"
      ],
      [
        "Ġexcla",
        "mou"
      ],
      [
        "A",
        "S"
      ],
      [
        "i",
        "va"
      ],
      [
        "is",
        "tiu"
      ],
      [
        "Ġv",
        "Ã£o"
      ],
      [
        "Ġes",
        "cri"
      ],
      [
        "Ġre",
        "sol"
      ],
      [
        "Ġno",
        "ta"
      ],
      [
        "Ġdi",
        "ver"
      ],
      [
        "ma",
        "do"
      ],
      [
        "Ġdes",
        "con"
      ],
      [
        "Ġvi",
        "ver"
      ],
      [
        "ĠM",
        "rs"
      ],
      [
        "Ġsem",
        "inÃ¡rio"
      ],
      [
        "bi",
        "os"
      ],
      [
        "ba",
        "ixo"
      ],
      [
        "Ġter",
        "n"
      ],
      [
        "Ġab",
        "er"
      ],
      [
        "ist",
        "Ãªncia"
      ],
      [
        "Ġimp",
        "ressÃ£o"
      ],
      [
        "Ġacaba",
        "va"
      ],
      [
        "ene",
        "dita"
      ],
      [
        "Ġdest",
        "ino"
      ],
      [
        "Ġclar",
        "o"
      ],
      [
        "Ã³si",
        "to"
      ],
      [
        "E",
        "S"
      ],
      [
        "c",
        "al"
      ],
      [
        "Ġp",
        "es"
      ],
      [
        "Ġc",
        "ul"
      ],
      [
        "se",
        "ra"
      ],
      [
        "Ġn",
        "um"
      ],
      [
        "Ġco",
        "ch"
      ],
      [
        "lh",
        "ou"
      ],
      [
        "Ġse",
        "me"
      ],
      [
        "Ġse",
        "cre"
      ],
      [
        "le",
        "ta"
      ],
      [
        "lo",
        "res"
      ],
      [
        "ran",
        "da"
      ],
      [
        "Ġter",
        "c"
      ],
      [
        "Ġpen",
        "sou"
      ],
      [
        "Ġne",
        "la"
      ],
      [
        "Ġpu",
        "de"
      ],
      [
        "Ġtor",
        "na"
      ],
      [
        "Ġer",
        "gueu"
      ],
      [
        "Ġmi",
        "l"
      ],
      [
        "Ġindi",
        "fere"
      ],
      [
        "ĠPro",
        "cÃ³pio"
      ],
      [
        "ine",
        "te"
      ],
      [
        "Ġinten",
        "Ã§Ã£o"
      ],
      [
        "Ġc",
        "la"
      ],
      [
        "Ġm",
        "Ãº"
      ],
      [
        "Ġde",
        "dos"
      ],
      [
        "que",
        "las"
      ],
      [
        "ou",
        "tro"
      ],
      [
        "la",
        "men"
      ],
      [
        "Ġes",
        "per"
      ],
      [
        "im",
        "ou"
      ],
      [
        "ÃŃ",
        "amos"
      ],
      [
        "Ġb",
        "ai"
      ],
      [
        "ti",
        "l"
      ],
      [
        "Ġpe",
        "gou"
      ],
      [
        "Ġsu",
        "r"
      ],
      [
        "Ġser",
        "Ã¡"
      ],
      [
        "Ġpr",
        "Ã³"
      ],
      [
        "ĠI",
        "s"
      ],
      [
        "ÃŃs",
        "sim"
      ],
      [
        "Ġlemb",
        "ranÃ§a"
      ],
      [
        "ĠCam",
        "argo"
      ],
      [
        "Ġdifere",
        "nÃ§a"
      ],
      [
        "Ġsan",
        "gue"
      ],
      [
        "Ġtern",
        "ura"
      ],
      [
        "A",
        "o"
      ],
      [
        "I",
        "aiÃ¡"
      ],
      [
        "U",
        "m"
      ],
      [
        "i",
        "l"
      ],
      [
        "n",
        "em"
      ],
      [
        "Ã",
        "ĥ"
      ],
      [
        "Ġp",
        "Ãºb"
      ],
      [
        "Ġde",
        "mais"
      ],
      [
        "Ġn",
        "este"
      ],
      [
        "is",
        "to"
      ],
      [
        "Ġf",
        "Ã¡"
      ],
      [
        "lh",
        "i"
      ],
      [
        "le",
        "mb"
      ],
      [
        "Ġre",
        "alidade"
      ],
      [
        "ei",
        "ras"
      ],
      [
        "li",
        "o"
      ],
      [
        "li",
        "z"
      ],
      [
        "ti",
        "cas"
      ],
      [
        "Ġna",
        "quele"
      ],
      [
        "Ãª",
        "me"
      ],
      [
        "Ġcon",
        "clu"
      ],
      [
        "Ġma",
        "u"
      ],
      [
        "vi",
        "mento"
      ],
      [
        "ĠM",
        "ar"
      ],
      [
        "Ġper",
        "to"
      ],
      [
        "Ġolh",
        "ava"
      ],
      [
        "Ġho",
        "n"
      ],
      [
        "Ġir",
        "ia"
      ],
      [
        "Ġab",
        "ra"
      ],
      [
        "enh",
        "uma"
      ],
      [
        "Ġinter",
        "ro"
      ],
      [
        "ĠNa",
        "da"
      ],
      [
        "Ġim",
        "possÃŃvel"
      ],
      [
        "lamen",
        "go"
      ],
      [
        "i",
        "nter"
      ],
      [
        "Ġd",
        "inheiro"
      ],
      [
        "Ġo",
        "fÃŃcio"
      ],
      [
        "Ġf",
        "er"
      ],
      [
        "ri",
        "bu"
      ],
      [
        "sa",
        "va"
      ],
      [
        "ĠN",
        "unca"
      ],
      [
        "Ġcon",
        "cor"
      ],
      [
        "Ġdi",
        "re"
      ],
      [
        "tu",
        "r"
      ],
      [
        "ĠD",
        "es"
      ],
      [
        "Ġle",
        "vou"
      ],
      [
        "Ġtem",
        "pos"
      ],
      [
        "Ġtra",
        "z"
      ],
      [
        "ĠI",
        "n"
      ],
      [
        "ĠB",
        "enedita"
      ],
      [
        "Ġvis",
        "to"
      ],
      [
        "Ġvis",
        "itas"
      ],
      [
        "Ġrep",
        "li"
      ],
      [
        "Ġpoder",
        "ia"
      ],
      [
        "Ġigu",
        "al"
      ],
      [
        "ĠnegÃ³",
        "cio"
      ],
      [
        "g",
        "no"
      ],
      [
        "t",
        "Ã¢ncias"
      ],
      [
        "x",
        "to"
      ],
      [
        "Ġc",
        "Ã©"
      ],
      [
        "Ġn",
        "esse"
      ],
      [
        "lhe",
        "res"
      ],
      [
        "te",
        "ve"
      ],
      [
        "lo",
        "n"
      ],
      [
        "Ġem",
        "pre"
      ],
      [
        "Ġl",
        "ou"
      ],
      [
        "Ġl",
        "ÃŃn"
      ],
      [
        "Ġri",
        "r"
      ],
      [
        "Ġbra",
        "Ã§o"
      ],
      [
        "Ġgu",
        "erra"
      ],
      [
        "f",
        "al"
      ],
      [
        "j",
        "os"
      ],
      [
        "o",
        "b"
      ],
      [
        "Ġp",
        "ia"
      ],
      [
        "Ġm",
        "amÃ£e"
      ],
      [
        "is",
        "so"
      ],
      [
        "Ġf",
        "lores"
      ],
      [
        "Ġal",
        "to"
      ],
      [
        "Ġdi",
        "fÃŃcil"
      ],
      [
        "Ġdes",
        "cob"
      ],
      [
        "ĠO",
        "ra"
      ],
      [
        "Ġser",
        "vi"
      ],
      [
        "Ġar",
        "te"
      ],
      [
        "Ġmu",
        "rmu"
      ],
      [
        "Ġpergu",
        "nta"
      ],
      [
        "gos",
        "to"
      ],
      [
        "Ġinte",
        "ressa"
      ],
      [
        "Ġau",
        "tor"
      ],
      [
        "vent",
        "ura"
      ],
      [
        "g",
        "asse"
      ],
      [
        "o",
        "l"
      ],
      [
        "Ġc",
        "res"
      ],
      [
        "Ġde",
        "ra"
      ],
      [
        "de",
        "pois"
      ],
      [
        "Ġpa",
        "is"
      ],
      [
        "an",
        "eiro"
      ],
      [
        "Ġda",
        "do"
      ],
      [
        "li",
        "x"
      ],
      [
        "ĠD",
        "r"
      ],
      [
        "Ġi",
        "l"
      ],
      [
        "Ġle",
        "var"
      ],
      [
        "Ġso",
        "no"
      ],
      [
        "Ġpare",
        "cer"
      ],
      [
        "Ġfe",
        "cha"
      ],
      [
        "Ġtriste",
        "za"
      ],
      [
        "Ġexem",
        "plo"
      ],
      [
        "b",
        "inete"
      ],
      [
        "j",
        "ar"
      ],
      [
        "v",
        "endo"
      ],
      [
        "Ġp",
        "ior"
      ],
      [
        "Ġde",
        "li"
      ],
      [
        "Ġt",
        "endo"
      ],
      [
        "de",
        "ndo"
      ],
      [
        "Ġes",
        "sas"
      ],
      [
        "Ġem",
        "p"
      ],
      [
        "Ġg",
        "en"
      ],
      [
        "ĠC",
        "X"
      ],
      [
        "Ġfi",
        "los"
      ],
      [
        "Ġpo",
        "nta"
      ],
      [
        "Ġpe",
        "los"
      ],
      [
        "ĠM",
        "e"
      ],
      [
        "ĠM",
        "eu"
      ],
      [
        "osa",
        "mente"
      ],
      [
        "Ġbas",
        "ta"
      ],
      [
        "Ġtro",
        "ca"
      ],
      [
        "algum",
        "a"
      ],
      [
        "Ġdeve",
        "ras"
      ],
      [
        "Ġimagina",
        "Ã§Ã£o"
      ],
      [
        "Ãĥ",
        "O"
      ],
      [
        "I",
        "V"
      ],
      [
        "O",
        "s"
      ],
      [
        "l",
        "is"
      ],
      [
        "n",
        "ar"
      ],
      [
        "Ġp",
        "ros"
      ],
      [
        "is",
        "tro"
      ],
      [
        "es",
        "tava"
      ],
      [
        "Ġv",
        "em"
      ],
      [
        "ta",
        "mb"
      ],
      [
        "ri",
        "do"
      ],
      [
        "ca",
        "da"
      ],
      [
        "Ġb",
        "ran"
      ],
      [
        "Ġb",
        "rin"
      ],
      [
        "Ġcon",
        "fi"
      ],
      [
        "ĠP",
        "lÃ¡"
      ],
      [
        "ando",
        "u"
      ],
      [
        "lha",
        "do"
      ],
      [
        "cas",
        "se"
      ],
      [
        "su",
        "r"
      ],
      [
        "Ġesta",
        "do"
      ],
      [
        "Ġespe",
        "rava"
      ],
      [
        "Ġdese",
        "n"
      ],
      [
        "Ġcomp",
        "anh"
      ],
      [
        "qÃ¼",
        "e"
      ],
      [
        "Ġjan",
        "elas"
      ],
      [
        "Ġesc",
        "ra"
      ],
      [
        "Ġretra",
        "to"
      ],
      [
        "pec",
        "to"
      ],
      [
        "L",
        "uÃŃs"
      ],
      [
        "a",
        "cho"
      ],
      [
        "u",
        "so"
      ],
      [
        "z",
        "as"
      ],
      [
        "Ġa",
        "Ã§Ã£o"
      ],
      [
        "Ġo",
        "bede"
      ],
      [
        "Ġse",
        "is"
      ],
      [
        "en",
        "ho"
      ],
      [
        "ma",
        "ra"
      ],
      [
        "pa",
        "rar"
      ],
      [
        "Ġsa",
        "cri"
      ],
      [
        "Ġvi",
        "eram"
      ],
      [
        "un",
        "da"
      ],
      [
        "nta",
        "mente"
      ],
      [
        "Ġolh",
        "ando"
      ],
      [
        "ver",
        "s"
      ],
      [
        "tÃ¡",
        "rio"
      ],
      [
        "ĠJ",
        "aneiro"
      ],
      [
        "ns",
        "i"
      ],
      [
        "Ġpre",
        "fer"
      ],
      [
        "ĠL",
        "alau"
      ],
      [
        "su",
        "a"
      ],
      [
        "ĠB",
        "em"
      ],
      [
        "ja",
        "va"
      ],
      [
        "Ġpos",
        "su"
      ],
      [
        "du",
        "ra"
      ],
      [
        "Ġvol",
        "tar"
      ],
      [
        "ĠEu",
        "ropa"
      ],
      [
        "Ġparecia",
        "m"
      ],
      [
        "Ġr",
        "Ã©"
      ],
      [
        "Ġdef",
        "u"
      ],
      [
        "Ġpres",
        "i"
      ],
      [
        "................",
        "................"
      ],
      [
        "Ġtroux",
        "e"
      ],
      [
        "C",
        "a"
      ],
      [
        "E",
        "u"
      ],
      [
        "R",
        "A"
      ],
      [
        "p",
        "lica"
      ],
      [
        "Ġ",
        "uni"
      ],
      [
        "Ġse",
        "gre"
      ],
      [
        "Ã©",
        "lix"
      ],
      [
        "ÃŃ",
        "do"
      ],
      [
        "co",
        "me"
      ],
      [
        "Ġme",
        "lan"
      ],
      [
        "Ġcon",
        "so"
      ],
      [
        "Ġcon",
        "si"
      ],
      [
        "tu",
        "ras"
      ],
      [
        "Ġvi",
        "va"
      ],
      [
        "Ġpe",
        "di"
      ],
      [
        "ĠT",
        "i"
      ],
      [
        "Ġen",
        "fer"
      ],
      [
        "Ġfaz",
        "Ãª"
      ],
      [
        "ĠG",
        "lÃ³ria"
      ],
      [
        "Ġsenti",
        "do"
      ],
      [
        "Ġman",
        "eira"
      ],
      [
        "Ġest",
        "ima"
      ],
      [
        "lÃ¡",
        "udia"
      ],
      [
        "Ġente",
        "nder"
      ],
      [
        "Ġpensa",
        "va"
      ],
      [
        "Ġfra",
        "se"
      ],
      [
        "Ġanter",
        "ior"
      ],
      [
        "tamb",
        "Ã©m"
      ],
      [
        "r",
        "ima"
      ],
      [
        "t",
        "im"
      ],
      [
        "Ġde",
        "vo"
      ],
      [
        "Ġf",
        "res"
      ],
      [
        "de",
        "ix"
      ],
      [
        "Ġdo",
        "m"
      ],
      [
        "em",
        "ais"
      ],
      [
        "Ġre",
        "li"
      ],
      [
        "Ġb",
        "ene"
      ],
      [
        "Ġem",
        "bar"
      ],
      [
        "Ġin",
        "c"
      ],
      [
        "Ġpe",
        "da"
      ],
      [
        "Ġle",
        "ve"
      ],
      [
        "Ġsem",
        "anas"
      ],
      [
        "Ġan",
        "dar"
      ],
      [
        "za",
        "de"
      ],
      [
        "ĠI",
        "a"
      ],
      [
        "Ġentre",
        "tanto"
      ],
      [
        "Ġespe",
        "ra"
      ],
      [
        "ita",
        "Ã§Ã£o"
      ],
      [
        "Ġconf",
        "ir"
      ],
      [
        "Ġcha",
        "pÃ©"
      ],
      [
        "gre",
        "ja"
      ],
      [
        "Ġor",
        "dem"
      ],
      [
        "tr",
        "Ã³"
      ],
      [
        "Ġexplica",
        "Ã§Ã£o"
      ],
      [
        "cur",
        "so"
      ],
      [
        "N",
        "T"
      ],
      [
        "d",
        "Ãª"
      ],
      [
        "g",
        "es"
      ],
      [
        "i",
        "lia"
      ],
      [
        "l",
        "pe"
      ],
      [
        "n",
        "ia"
      ],
      [
        "Ã",
        "ł"
      ],
      [
        "Ġ",
        "ria"
      ],
      [
        "Ġa",
        "me"
      ],
      [
        "Ġc",
        "em"
      ],
      [
        "Ġm",
        "ei"
      ],
      [
        "Ġn",
        "uma"
      ],
      [
        "um",
        "an"
      ],
      [
        "da",
        "ndo"
      ],
      [
        "de",
        "us"
      ],
      [
        "Ġdo",
        "ce"
      ],
      [
        "ĠE",
        "x"
      ],
      [
        "ci",
        "ente"
      ],
      [
        "ĠA",
        "nda"
      ],
      [
        "Ġmo",
        "mento"
      ],
      [
        "Ġve",
        "lhos"
      ],
      [
        "Ġper",
        "ce"
      ],
      [
        "io",
        "res"
      ],
      [
        "tÃ¡",
        "culo"
      ],
      [
        "ĠJ",
        "o"
      ],
      [
        "ĠF",
        "lamengo"
      ],
      [
        "ĠB",
        "atista"
      ],
      [
        "por",
        "que"
      ],
      [
        "Ġad",
        "vo"
      ],
      [
        "tural",
        "mente"
      ],
      [
        "Ġescre",
        "veu"
      ],
      [
        "fo",
        "go"
      ],
      [
        "ĠÃŃ",
        "nt"
      ],
      [
        "Ġcava",
        "lo"
      ],
      [
        "Ġadiv",
        "inh"
      ],
      [
        "Ġfin",
        "almente"
      ],
      [
        "d",
        "indo"
      ],
      [
        "n",
        "al"
      ],
      [
        "u",
        "la"
      ],
      [
        "ra",
        "ia"
      ],
      [
        "ci",
        "oso"
      ],
      [
        "ci",
        "mentos"
      ],
      [
        "ĠA",
        "h"
      ],
      [
        "Ġno",
        "mes"
      ],
      [
        "po",
        "dia"
      ],
      [
        "Ġg",
        "as"
      ],
      [
        "cu",
        "la"
      ],
      [
        "Ġcont",
        "os"
      ],
      [
        "Ġfaz",
        "en"
      ],
      [
        "Ġte",
        "atro"
      ],
      [
        "Ġmor",
        "reu"
      ],
      [
        "Ġli",
        "ber"
      ],
      [
        "Ġespe",
        "rar"
      ],
      [
        "rÃ¡",
        "pi"
      ],
      [
        "Ġba",
        "ixo"
      ],
      [
        "Ġpu",
        "ra"
      ],
      [
        "Ġpensa",
        "mento"
      ],
      [
        "ĠOu",
        "vi"
      ],
      [
        "ĠpÃ¡",
        "gina"
      ],
      [
        "Ġanda",
        "ndo"
      ],
      [
        "Ġcurios",
        "idade"
      ],
      [
        "Ġgover",
        "no"
      ],
      [
        "ĠlÃŃn",
        "gua"
      ],
      [
        "j",
        "or"
      ],
      [
        "Ġa",
        "z"
      ],
      [
        "Ġa",
        "nte"
      ],
      [
        "que",
        "za"
      ],
      [
        "ta",
        "fogo"
      ],
      [
        "Ġes",
        "pos"
      ],
      [
        "Ġdo",
        "ente"
      ],
      [
        "Ġre",
        "m"
      ],
      [
        "ei",
        "tos"
      ],
      [
        "ti",
        "vos"
      ],
      [
        "Ġg",
        "Ãªme"
      ],
      [
        "ĠC",
        "lÃ¡udia"
      ],
      [
        "ĠD",
        "i"
      ],
      [
        "tra",
        "n"
      ],
      [
        "un",
        "es"
      ],
      [
        "Ġsen",
        "horas"
      ],
      [
        "con",
        "se"
      ],
      [
        "Ġfor",
        "tuna"
      ],
      [
        "Ġfosse",
        "m"
      ],
      [
        "si",
        "ca"
      ],
      [
        "Ġcria",
        "do"
      ],
      [
        "Ġtu",
        "a"
      ],
      [
        "ĠnotÃŃ",
        "cias"
      ],
      [
        "Ġga",
        "binete"
      ],
      [
        "Ġdirei",
        "to"
      ],
      [
        "Ġarre",
        "pen"
      ],
      [
        "Ġconfia",
        "nÃ§a"
      ],
      [
        "ĠprÃ³",
        "x"
      ],
      [
        "m",
        "Ã¡"
      ],
      [
        "Ġa",
        "ju"
      ],
      [
        "ra",
        "is"
      ],
      [
        "es",
        "tas"
      ],
      [
        "Ġse",
        "ndo"
      ],
      [
        "le",
        "n"
      ],
      [
        "Ġes",
        "tes"
      ],
      [
        "Ġre",
        "g"
      ],
      [
        "ĠN",
        "e"
      ],
      [
        "Ġal",
        "can"
      ],
      [
        "Ġca",
        "pi"
      ],
      [
        "pa",
        "tia"
      ],
      [
        "Ġvi",
        "esse"
      ],
      [
        "ĠO",
        "lhe"
      ],
      [
        "ram",
        "os"
      ],
      [
        "Ġper",
        "do"
      ],
      [
        "ina",
        "va"
      ],
      [
        "Ġfaz",
        "endo"
      ],
      [
        "Ġprime",
        "iras"
      ],
      [
        "bo",
        "a"
      ],
      [
        "era",
        "l"
      ],
      [
        "Ġcria",
        "tura"
      ],
      [
        "mes",
        "sa"
      ],
      [
        "Ġju",
        "ntos"
      ],
      [
        "Ġprop",
        "Ã³sito"
      ],
      [
        "Este",
        "la"
      ],
      [
        "Ġbre",
        "ve"
      ],
      [
        "Ġmost",
        "rou"
      ],
      [
        "trÃ³",
        "po"
      ],
      [
        "V",
        "II"
      ],
      [
        "s",
        "or"
      ],
      [
        "v",
        "Ãª"
      ],
      [
        "Ġpa",
        "z"
      ],
      [
        "Ġre",
        "mor"
      ],
      [
        "Ġre",
        "conhe"
      ],
      [
        "co",
        "isa"
      ],
      [
        "Ġb",
        "ele"
      ],
      [
        "ĠA",
        "inda"
      ],
      [
        "tu",
        "al"
      ],
      [
        "ĠD",
        "E"
      ],
      [
        "Ġfi",
        "quei"
      ],
      [
        "Ġfo",
        "lha"
      ],
      [
        "Ġh",
        "i"
      ],
      [
        "con",
        "f"
      ],
      [
        "Ġpen",
        "sar"
      ],
      [
        "Ġmu",
        "lheres"
      ],
      [
        "Ġcer",
        "teza"
      ],
      [
        "mes",
        "mo"
      ],
      [
        "Ġrep",
        "u"
      ],
      [
        "Ġleva",
        "ntou"
      ],
      [
        "ĠpÃ´",
        "s"
      ],
      [
        "tÃ©",
        "rio"
      ],
      [
        "Ġpeque",
        "no"
      ],
      [
        "Ġrec",
        "us"
      ],
      [
        "Ġrela",
        "Ã§Ãµes"
      ],
      [
        "Ġsomb",
        "ra"
      ],
      [
        "I",
        "X"
      ],
      [
        "V",
        "III"
      ],
      [
        "p",
        "esso"
      ],
      [
        "Ġ",
        "z"
      ],
      [
        "Ġ",
        "rou"
      ],
      [
        "Ġ",
        "rÃ¡pi"
      ],
      [
        "Ġe",
        "me"
      ],
      [
        "Ġc",
        "Ã³"
      ],
      [
        "Ġo",
        "fere"
      ],
      [
        "is",
        "as"
      ],
      [
        "Ġco",
        "ntava"
      ],
      [
        "me",
        "nos"
      ],
      [
        "Ġre",
        "ti"
      ],
      [
        "Ġou",
        "v"
      ],
      [
        "ga",
        "nte"
      ],
      [
        "Ġpe",
        "dido"
      ],
      [
        "ĠQu",
        "anto"
      ],
      [
        "ge",
        "nte"
      ],
      [
        "Ġdia",
        "bo"
      ],
      [
        "ĠlÃ¡",
        "bios"
      ],
      [
        "Ġche",
        "gar"
      ],
      [
        "Ġman",
        "a"
      ],
      [
        "pÃ©",
        "is"
      ],
      [
        "Ġvir",
        "tu"
      ],
      [
        "Ġor",
        "de"
      ],
      [
        "ĠCar",
        "los"
      ],
      [
        "Ġro",
        "Ã§a"
      ],
      [
        "Ġsin",
        "cer"
      ],
      [
        "Ġsin",
        "cera"
      ],
      [
        "Ġmostra",
        "r"
      ],
      [
        "Ġconser",
        "va"
      ],
      [
        "Ġresolu",
        "Ã§Ã£o"
      ],
      [
        "Ġomb",
        "ros"
      ],
      [
        "dras",
        "ta"
      ],
      [
        "ÃŃssim",
        "o"
      ],
      [
        "trÃ³po",
        "lis"
      ],
      [
        "!",
        "\""
      ],
      [
        "e",
        "do"
      ],
      [
        "i",
        "tar"
      ],
      [
        "v",
        "ei"
      ],
      [
        "z",
        "inha"
      ],
      [
        "Ġ",
        "âĢľ"
      ],
      [
        "Ġa",
        "g"
      ],
      [
        "re",
        "n"
      ],
      [
        "Ġn",
        "Ãºm"
      ],
      [
        "Ġou",
        "ro"
      ],
      [
        "ĠA",
        "qui"
      ],
      [
        "ce",
        "ram"
      ],
      [
        "Ġca",
        "p"
      ],
      [
        "Ġpen",
        "sando"
      ],
      [
        "Ġqua",
        "nto"
      ],
      [
        "Ġva",
        "ga"
      ],
      [
        "Ġva",
        "nta"
      ],
      [
        "Ġinter",
        "ior"
      ],
      [
        "Ġcu",
        "ri"
      ],
      [
        "Ġrep",
        "ar"
      ],
      [
        "Ġamb",
        "as"
      ],
      [
        "Ġama",
        "va"
      ],
      [
        "Ġapare",
        "ceu"
      ],
      [
        "Ġjo",
        "e"
      ],
      [
        "vent",
        "u"
      ],
      [
        "Ġcul",
        "pa"
      ],
      [
        "Ġpia",
        "no"
      ],
[...]
